<unk>	0
<|pad|>	0
<|bos|>	0
<|eos|>	0
<|eod|>	0
<0x00>	0
<0x01>	0
<0x02>	0
<0x03>	0
<0x04>	0
<0x05>	0
<0x06>	0
<0x07>	0
<0x08>	0
<0x09>	0
<0x0A>	0
<0x0B>	0
<0x0C>	0
<0x0D>	0
<0x0E>	0
<0x0F>	0
<0x10>	0
<0x11>	0
<0x12>	0
<0x13>	0
<0x14>	0
<0x15>	0
<0x16>	0
<0x17>	0
<0x18>	0
<0x19>	0
<0x1A>	0
<0x1B>	0
<0x1C>	0
<0x1D>	0
<0x1E>	0
<0x1F>	0
<0x20>	0
<0x21>	0
<0x22>	0
<0x23>	0
<0x24>	0
<0x25>	0
<0x26>	0
<0x27>	0
<0x28>	0
<0x29>	0
<0x2A>	0
<0x2B>	0
<0x2C>	0
<0x2D>	0
<0x2E>	0
<0x2F>	0
<0x30>	0
<0x31>	0
<0x32>	0
<0x33>	0
<0x34>	0
<0x35>	0
<0x36>	0
<0x37>	0
<0x38>	0
<0x39>	0
<0x3A>	0
<0x3B>	0
<0x3C>	0
<0x3D>	0
<0x3E>	0
<0x3F>	0
<0x40>	0
<0x41>	0
<0x42>	0
<0x43>	0
<0x44>	0
<0x45>	0
<0x46>	0
<0x47>	0
<0x48>	0
<0x49>	0
<0x4A>	0
<0x4B>	0
<0x4C>	0
<0x4D>	0
<0x4E>	0
<0x4F>	0
<0x50>	0
<0x51>	0
<0x52>	0
<0x53>	0
<0x54>	0
<0x55>	0
<0x56>	0
<0x57>	0
<0x58>	0
<0x59>	0
<0x5A>	0
<0x5B>	0
<0x5C>	0
<0x5D>	0
<0x5E>	0
<0x5F>	0
<0x60>	0
<0x61>	0
<0x62>	0
<0x63>	0
<0x64>	0
<0x65>	0
<0x66>	0
<0x67>	0
<0x68>	0
<0x69>	0
<0x6A>	0
<0x6B>	0
<0x6C>	0
<0x6D>	0
<0x6E>	0
<0x6F>	0
<0x70>	0
<0x71>	0
<0x72>	0
<0x73>	0
<0x74>	0
<0x75>	0
<0x76>	0
<0x77>	0
<0x78>	0
<0x79>	0
<0x7A>	0
<0x7B>	0
<0x7C>	0
<0x7D>	0
<0x7E>	0
<0x7F>	0
<0x80>	0
<0x81>	0
<0x82>	0
<0x83>	0
<0x84>	0
<0x85>	0
<0x86>	0
<0x87>	0
<0x88>	0
<0x89>	0
<0x8A>	0
<0x8B>	0
<0x8C>	0
<0x8D>	0
<0x8E>	0
<0x8F>	0
<0x90>	0
<0x91>	0
<0x92>	0
<0x93>	0
<0x94>	0
<0x95>	0
<0x96>	0
<0x97>	0
<0x98>	0
<0x99>	0
<0x9A>	0
<0x9B>	0
<0x9C>	0
<0x9D>	0
<0x9E>	0
<0x9F>	0
<0xA0>	0
<0xA1>	0
<0xA2>	0
<0xA3>	0
<0xA4>	0
<0xA5>	0
<0xA6>	0
<0xA7>	0
<0xA8>	0
<0xA9>	0
<0xAA>	0
<0xAB>	0
<0xAC>	0
<0xAD>	0
<0xAE>	0
<0xAF>	0
<0xB0>	0
<0xB1>	0
<0xB2>	0
<0xB3>	0
<0xB4>	0
<0xB5>	0
<0xB6>	0
<0xB7>	0
<0xB8>	0
<0xB9>	0
<0xBA>	0
<0xBB>	0
<0xBC>	0
<0xBD>	0
<0xBE>	0
<0xBF>	0
<0xC0>	0
<0xC1>	0
<0xC2>	0
<0xC3>	0
<0xC4>	0
<0xC5>	0
<0xC6>	0
<0xC7>	0
<0xC8>	0
<0xC9>	0
<0xCA>	0
<0xCB>	0
<0xCC>	0
<0xCD>	0
<0xCE>	0
<0xCF>	0
<0xD0>	0
<0xD1>	0
<0xD2>	0
<0xD3>	0
<0xD4>	0
<0xD5>	0
<0xD6>	0
<0xD7>	0
<0xD8>	0
<0xD9>	0
<0xDA>	0
<0xDB>	0
<0xDC>	0
<0xDD>	0
<0xDE>	0
<0xDF>	0
<0xE0>	0
<0xE1>	0
<0xE2>	0
<0xE3>	0
<0xE4>	0
<0xE5>	0
<0xE6>	0
<0xE7>	0
<0xE8>	0
<0xE9>	0
<0xEA>	0
<0xEB>	0
<0xEC>	0
<0xED>	0
<0xEE>	0
<0xEF>	0
<0xF0>	0
<0xF1>	0
<0xF2>	0
<0xF3>	0
<0xF4>	0
<0xF5>	0
<0xF6>	0
<0xF7>	0
<0xF8>	0
<0xF9>	0
<0xFA>	0
<0xFB>	0
<0xFC>	0
<0xFD>	0
<0xFE>	0
<0xFF>	0
▁	-2.63594
、	-3.52435
。	-3.76949
1	-4.22649
0	-4.29749
.	-4.33098
の	-4.38079
2	-4.48181
,	-4.62776
は	-4.87253
▁|	-4.8905
が	-4.95351
▁the	-4.99603
3	-5.12198
)	-5.13651
を	-5.15157
_	-5.17259
(	-5.18953
s	-5.21649
に	-5.25328
:	-5.26472
5	-5.32613
で	-5.34681
4	-5.37934
と	-5.39263
・	-5.52406
9	-5.52956
▁of	-5.54624
」	-5.60118
6	-5.60463
8	-5.65722
-	-5.70605
7	-5.70803
「	-5.79421
▁to	-5.82689
▁and	-5.86117
も	-5.88948
▁a	-5.90768
）	-5.96182
年	-5.99373
/	-6.03814
▁=	-6.03853
▁in	-6.07447
▁-	-6.10617
（	-6.11474
や	-6.1194
▁is	-6.12919
月	-6.24032
▁(	-6.25025
▁▁▁▁	-6.25331
!	-6.28008
から	-6.28161
▁▁▁▁▁▁▁▁	-6.29515
です	-6.38269
日	-6.42611
し	-6.47616
?	-6.54835
▁for	-6.68819
"	-6.70485
▁that	-6.72345
する	-6.72382
'	-6.73376
した	-6.7966
な	-6.82293
=	-6.91011
▁#	-6.9673
x	-6.97883
か	-7.03311
る	-7.03966
▁The	-7.06463
して	-7.07335
d	-7.07897
[	-7.08667
▁▁▁▁▁▁▁▁▁▁▁▁	-7.09877
という	-7.10248
では	-7.11028
▁are	-7.12396
]	-7.12644
ing	-7.13765
▁be	-7.16005
n	-7.16923
には	-7.17376
t	-7.1793
▁"	-7.18269
▁as	-7.18902
た	-7.19678
ed	-7.205
▁with	-7.22098
として	-7.2245
▁▁▁▁▁▁▁▁▁▁▁▁▁▁▁▁	-7.23759
その	-7.23994
この	-7.24048
▁it	-7.2672
』	-7.28219
▁on	-7.31416
▁by	-7.31458
y	-7.33417
て	-7.33553
▁「	-7.337
▁if	-7.34125
：	-7.34886
である	-7.35943
など	-7.37393
▁from	-7.37846
a	-7.39753
▁A	-7.4055
▁you	-7.40746
▁or	-7.41435
人	-7.42721
って	-7.43003
▁Answer	-7.43349
▁Question	-7.4376
ので	-7.45869
i	-7.46064
でも	-7.4607
▁▁▁▁▁	-7.46326
▁\	-7.47953
m	-7.48692
▁+	-7.4979
{	-7.49794
▁this	-7.53069
『	-7.53553
また	-7.53773
e	-7.53915
self	-7.54695
▁self	-7.54887
？	-7.55099
１	-7.55224
▁not	-7.55773
，	-7.56129
▁I	-7.56279
▁can	-7.57885
A	-7.58545
大	-7.59504
S	-7.597
▁▁▁▁▁▁▁▁▁	-7.62131
、「	-7.63377
%	-7.63617
ます	-7.63866
):	-7.63913
+	-7.66653
;	-7.66947
▁an	-7.67241
~	-7.67518
▁at	-7.70474
}	-7.70873
▁have	-7.71686
について	-7.71747
】	-7.73507
り	-7.74075
している	-7.74096
お	-7.74421
…	-7.75179
中	-7.75299
r	-7.76792
▁$	-7.77975
\	-7.78831
▁we	-7.79012
まで	-7.79254
い	-7.80284
▁'	-7.80413
|	-7.80479
ら	-7.8095
２	-7.81763
だ	-7.85106
▁x	-7.86862
ス	-7.87028
円	-7.87085
分	-7.87199
一	-7.87282
▁def	-7.87585
本	-7.87624
’	-7.88275
▁[	-7.88536
ね	-7.88996
より	-7.8934
▁B	-7.90526
へ	-7.91084
▁was	-7.91804
さん	-7.91972
第	-7.91983
された	-7.92209
b	-7.92561
よ	-7.92716
f	-7.93243
c	-7.94234
 	-7.94289
ました	-7.94353
▁C	-7.9489
C	-7.94993
時	-7.95205
ly	-7.95402
er	-7.96035
B	-7.96112
ー	-7.96556
名	-7.96988
こと	-7.97409
にも	-7.99234
市	-7.99453
回	-8.00112
等	-8.00661
▁•	-8.0113
p	-8.01595
・・・	-8.0294
▁▁▁▁▁▁▁▁▁▁▁▁▁	-8.03838
▁will	-8.04677
▁which	-8.04938
します	-8.05683
$	-8.06985
k	-8.07257
でした	-8.07491
ない	-8.0856
al	-8.0857
による	-8.08699
()	-8.09889
▁【	-8.10275
▁*	-8.10671
▁In	-8.10896
g	-8.10907
者	-8.11222
▁one	-8.1183
▁return	-8.13087
だった	-8.14437
T	-8.14457
とか	-8.14495
ですが	-8.15013
子	-8.16317
３	-8.16317
▁all	-8.16362
D	-8.1644
　	-8.18906
^	-8.20303
in	-8.20699
w	-8.21326
山	-8.21327
町	-8.21587
への	-8.21782
ている	-8.21899
||	-8.22448
時間	-8.22807
o	-8.24007
なら	-8.24129
▁S	-8.2417
水	-8.2437
▁has	-8.24731
!!	-8.24963
のは	-8.25239
できる	-8.26339
される	-8.26605
す	-8.26642
...	-8.27035
日本	-8.27503
ため	-8.27525
く	-8.27554
▁import	-8.28535
',	-8.28673
M	-8.2874
上	-8.30534
▁but	-8.30589
▁they	-8.30882
▁number	-8.30946
ア	-8.31027
F	-8.3114
しています	-8.3182
*	-8.32488
がある	-8.32531
的	-8.32709
▁your	-8.32889
さ	-8.33057
いた	-8.33236
０	-8.33285
h	-8.3351
み	-8.33619
▁（	-8.33804
▁more	-8.34079
▁This	-8.34491
とは	-8.34499
▁then	-8.34721
情報	-8.3474
▁"""	-8.34862
▁この	-8.3492
P	-8.35069
ある	-8.35162
しました	-8.35192
性	-8.35277
なので	-8.35504
部	-8.36659
～	-8.37263
数	-8.38346
もの	-8.38383
),	-8.3849
会	-8.3872
ト	-8.38831
き	-8.38878
▁so	-8.39226
>	-8.3935
つ	-8.39621
及び	-8.39916
によって	-8.40289
▁P	-8.40653
により	-8.41112
▁their	-8.41491
いる	-8.41602
ド	-8.42477
name	-8.42575
〜	-8.42688
v	-8.42753
&	-8.42856
笑	-8.43128
N	-8.43181
♪	-8.43683
．	-8.44516
ク	-8.44588
or	-8.45084
E	-8.45146
新	-8.45208
▁time	-8.45276
前	-8.4538
的な	-8.45506
R	-8.45779
後	-8.45929
化	-8.4601
になる	-8.46195
事業	-8.46537
▁D	-8.46691
方	-8.46694
法	-8.46756
es	-8.46984
金	-8.47613
話	-8.47743
to	-8.47903
▁do	-8.48341
▁two	-8.48717
▁『	-8.48861
u	-8.49035
",	-8.49169
こ	-8.4918
▁第	-8.49303
などの	-8.49514
▁other	-8.49647
され	-8.49827
内	-8.50632
▁==	-8.50779
コ	-8.50871
用	-8.50913
生	-8.50927
国	-8.51535
ズ	-8.51542
▁b	-8.51614
▁{	-8.51796
id	-8.52006
▁f	-8.52094
高	-8.52277
リ	-8.52504
けど	-8.52792
ように	-8.52815
手	-8.5382
▁※	-8.53998
th	-8.54165
った	-8.54186
('	-8.54195
ですね	-8.54856
見	-8.5508
K	-8.5564
H	-8.55675
G	-8.56464
下	-8.56726
４	-8.5709
X	-8.57672
号	-8.57751
://	-8.58141
).	-8.58242
力	-8.58546
ご	-8.58758
▁y	-8.58791
ノ	-8.58887
("	-8.58908
そして	-8.59011
▁If	-8.59028
川	-8.59046
のか	-8.59101
ル	-8.5919
▁than	-8.59264
ラ	-8.59283
小	-8.5986
であり	-8.60081
長	-8.60481
▁p	-8.60519
▁It	-8.60666
サービス	-8.61066
z	-8.6139
▁also	-8.61906
カ	-8.6194
re	-8.62502
▁when	-8.62595
com	-8.62894
物	-8.62975
います	-8.63635
▁use	-8.63831
data	-8.6387
▁there	-8.63949
マ	-8.63973
事	-8.63999
▁about	-8.64012
目	-8.64745
▁out	-8.64842
l	-8.65196
位	-8.65763
されている	-8.65823
▁would	-8.65853
村	-8.65897
frac	-8.66145
▁print	-8.66253
▁F	-8.6627
▁i	-8.66497
田	-8.66506
う	-8.66557
')	-8.66597
において	-8.66886
L	-8.66993
▁get	-8.6714
自分の	-8.67401
▁were	-8.67448
▁into	-8.67452
▁c	-8.67788
だけ	-8.67793
▁data	-8.67917
点	-8.68182
三	-8.68287
▁n	-8.6846
活動	-8.68477
出	-8.68699
ま	-8.6872
地	-8.69004
▁###	-8.69344
美	-8.69991
二	-8.70314
なり	-8.7089
	-8.70924
元	-8.71099
▁<	-8.71246
大学	-8.71412
同	-8.71453
ながら	-8.71727
に関する	-8.718
タ	-8.72228
I	-8.72551
５	-8.72668
これは	-8.72832
木	-8.73143
いて	-8.73172
▁how	-8.73398
しかし	-8.74121
))	-8.74246
家	-8.74552
▁what	-8.74638
▁each	-8.74684
とても	-8.74692
平成	-8.74754
V	-8.75227
いい	-8.75265
代	-8.7553
▁T	-8.75605
▁ 	-8.75665
W	-8.76122
」「	-8.76368
▁value	-8.76523
▁E	-8.76597
ナ	-8.76847
そう	-8.76875
▁up	-8.77092
▁only	-8.77135
方法	-8.7742
していた	-8.77586
今	-8.77675
▁R	-8.77768
ゲーム	-8.77784
となる	-8.77828
における	-8.78136
約	-8.78138
ような	-8.78203
型	-8.78386
▁some	-8.78777
▁its	-8.79302
▁first	-8.795
}{	-8.79505
▁また	-8.7955
については	-8.79646
店	-8.79681
▁>	-8.79884
シ	-8.79989
レ	-8.80279
ちょっと	-8.80662
さらに	-8.80977
日に	-8.81016
年に	-8.81018
のですが	-8.81217
野	-8.81596
J	-8.82022
▁“	-8.82213
▁he	-8.82377
サイト	-8.82615
道	-8.82617
のです	-8.8265
j	-8.82716
っ	-8.82814
教育	-8.82944
心	-8.83128
問題	-8.83455
もう	-8.83537
ん	-8.83698
線	-8.83728
社	-8.83734
よく	-8.83819
所	-8.84081
よう	-8.84196
")	-8.84314
▁used	-8.84378
▁M	-8.84401
島	-8.84445
にある	-8.84464
すると	-8.84653
ム	-8.84726
ほど	-8.84731
▁his	-8.84934
環境	-8.85108
▁no	-8.85308
イ	-8.8562
▁these	-8.85633
ています	-8.85682
get	-8.86001
何	-8.86303
ず	-8.86875
があります	-8.87096
わ	-8.87177
光	-8.87387
かな	-8.87584
各	-8.87785
▁m	-8.87893
および	-8.87993
▁any	-8.88137
path	-8.88183
▁##	-8.88253
と思います	-8.8854
外	-8.88655
だと	-8.88709
バ	-8.88748
`	-8.88803
ダ	-8.88854
is	-8.89099
▁function	-8.89251
地域	-8.89258
内容	-8.89377
ことを	-8.89439
#	-8.89482
▁them	-8.895
たい	-8.89649
万	-8.89707
女性	-8.89781
写真	-8.89787
原	-8.90241
ロ	-8.90423
【	-8.90508
▁N	-8.90531
ください	-8.90795
▁What	-8.90821
キ	-8.90878
色	-8.90901
私は	-8.91445
系	-8.9152
▁H	-8.91527
口	-8.91672
['	-8.91937
▁new	-8.91953
▁between	-8.9214
▁re	-8.92161
駅	-8.92377
だから	-8.92385
商品	-8.92519
研究	-8.92689
気	-8.92713
Y	-8.92859
人の	-8.92917
▁may	-8.92972
ジ	-8.92974
フ	-8.93012
サ	-8.93103
],	-8.93271
▁–	-8.93339
オ	-8.93381
無料	-8.93385
▁そして	-8.93447
利用	-8.93464
ion	-8.93593
書	-8.94032
！	-8.94166
度	-8.94331
評価	-8.94526
生活	-8.94706
▁same	-8.94952
歳	-8.94997
む	-8.95134
特に	-8.95262
▁like	-8.95339
あり	-8.95462
作品	-8.95554
でしょう	-8.95594
▁where	-8.9594
場所	-8.95997
あ	-8.96153
なんて	-8.96254
対応	-8.9627
東京	-8.96433
のが	-8.96506
平	-8.96516
▁G	-8.96587
▁else	-8.9666
機能	-8.96837
☆	-8.9704
▁We	-8.97159
にて	-8.97493
東	-8.97692
O	-8.97849
管理	-8.97935
▁For	-8.97949
▁many	-8.98094
行	-8.98196
６	-8.98537
先	-8.98544
戦	-8.98695
良い	-8.9922
場	-8.99251
他の	-8.99326
との	-8.99577
時に	-8.99611
▁set	-8.99629
="	-8.99718
さんの	-8.9973
んだ	-8.99826
南	-9.00062
学	-9.00067
での	-9.00152
体	-9.00268
文	-9.00274
映画	-9.0031
file	-9.00393
▁such	-9.00517
企業	-9.00558
海	-9.00729
そんな	-9.00887
!」	-9.00891
▁np	-9.00894
め	-9.01171
なかった	-9.01597
システム	-9.01777
神	-9.01832
ation	-9.02037
全	-9.02363
▁class	-9.02393
になった	-9.02459
からの	-9.02561
仕事	-9.02765
風	-9.0289
西	-9.03028
それ	-9.03111
品	-9.03191
曲	-9.03267
▁&	-9.03465
▁over	-9.03562
着	-9.03643
▁K	-9.03786
があり	-9.03844
ば	-9.03879
@	-9.04109
世界	-9.04291
▁been	-9.04317
施設	-9.04477
花	-9.04741
ネ	-9.04927
ic	-9.04999
int	-9.052
間	-9.05306
q	-9.05379
▁$\	-9.05673
すること	-9.05798
ポイント	-9.05882
×	-9.06019
▁using	-9.06172
▁None	-9.06297
ことが	-9.06299
和	-9.063
新しい	-9.06314
不	-9.06379
関係	-9.06466
▁who	-9.06527
list	-9.06735
会社	-9.06745
感	-9.06785
学校	-9.06792
エ	-9.06913
等の	-9.06924
ブ	-9.06933
▁should	-9.07023
車	-9.07275
www	-9.07292
愛	-9.07297
▁find	-9.07439
少し	-9.07539
石	-9.07779
支援	-9.07781
ミ	-9.07846
人が	-9.07893
これ	-9.0793
▁make	-9.08
▁people	-9.08009
▁had	-9.0802
本当に	-9.08193
ハ	-9.08339
センター	-9.08548
ちゃん	-9.08605
え	-9.08727
ガ	-9.0876
場合	-9.08762
期	-9.0886
白	-9.0887
ニ	-9.08963
ツ	-9.09098
になります	-9.09657
right	-9.09797
▁line	-9.09932
人は	-9.09976
私	-9.10159
▁test	-9.1018
版	-9.10514
▁--	-9.10554
したい	-9.10718
調査	-9.1096
. 	-9.11036
販売	-9.11094
に対して	-9.112
▁t	-9.11202
無	-9.11235
デ	-9.11243
イベント	-9.11404
グ	-9.11433
テ	-9.11555
状況	-9.11597
text	-9.11658
男	-9.1169
技術	-9.11752
▁point	-9.11912
日本の	-9.11976
に対する	-9.12235
台	-9.12318
大きな	-9.1244
使用	-9.12459
計画	-9.12486
▁given	-9.12815
▁our	-9.12859
メ	-9.12971
土	-9.12988
となった	-9.13058
▁L	-9.1313
st	-9.13183
▁de	-9.13185
の中で	-9.13362
type	-9.13363
まだ	-9.13432
モ	-9.13929
状態	-9.14204
的に	-9.14377
年度	-9.14482
ザ	-9.14573
社会	-9.14893
ビ	-9.14893
女	-9.14899
前に	-9.14996
よりも	-9.14996
▁just	-9.15068
en	-9.15134
のみ	-9.15176
ことで	-9.15283
マン	-9.15584
set	-9.15708
パ	-9.15728
”	-9.15816
left	-9.15895
イン	-9.16072
])	-9.1608
':	-9.16344
$$	-9.16414
▁most	-9.16575
us	-9.16728
size	-9.16787
on	-9.17001
そうです	-9.17122
▁○	-9.17368
Q	-9.17585
end	-9.17686
正	-9.17952
番	-9.17972
▁because	-9.18027
式	-9.18051
しか	-9.18086
参加	-9.18331
_{	-9.18461
<	-9.18534
なく	-9.18776
様	-9.18819
ことは	-9.18826
購入	-9.19007
け	-9.19122
面	-9.19153
▁To	-9.19565
食	-9.19687
ち	-9.19909
昭和	-9.20096
と思う	-9.20104
同じ	-9.20143
真	-9.20196
→	-9.20336
城	-9.20361
チ	-9.20386
登録	-9.20464
▁So	-9.20505
▁You	-9.20857
結果	-9.21055
バー	-9.21122
able	-9.21182
または	-9.21209
▁numbers	-9.21298
表	-9.21341
室	-9.21419
のある	-9.21436
ていた	-9.21457
価格	-9.21459
別	-9.21497
火	-9.21568
であった	-9.21586
?」	-9.21612
れば	-9.21673
音	-9.21935
頭	-9.22008
リー	-9.22061
▁"$	-9.22356
▁different	-9.22382
デザイン	-9.2264
ところ	-9.22662
７	-9.22689
屋	-9.23112
▁$$	-9.23185
のような	-9.2337
条	-9.23385
私の	-9.23456
ers	-9.23466
str	-9.23612
郡	-9.23689
北	-9.23883
ために	-9.23983
とも	-9.24118
▁need	-9.2438
▁example	-9.24469
万円	-9.24545
cm	-9.24723
▁●	-9.24843
▁could	-9.25098
▁しかし	-9.25181
立	-9.25212
発	-9.25323
ティ	-9.25435
カード	-9.25884
ではなく	-9.25886
ウ	-9.25918
▁work	-9.25962
図	-9.26061
モデル	-9.26086
それは	-9.26391
}\	-9.26451
▁way	-9.26485
区	-9.26631
作	-9.2679
初	-9.26874
以上	-9.26937
ネット	-9.26957
明	-9.26985
▁How	-9.27018
多くの	-9.27075
つの	-9.2711
くらい	-9.27164
といった	-9.27221
できます	-9.27275
月に	-9.27358
{\	-9.27479
できない	-9.27539
契約	-9.27623
動画	-9.27728
プロ	-9.28117
if	-9.28219
直	-9.28236
▁X	-9.28359
年の	-9.28633
プ	-9.28979
んです	-9.29182
機	-9.2925
='	-9.29298
音楽	-9.29553
グループ	-9.2965
８	-9.29663
説明	-9.29759
▁`	-9.29838
ディ	-9.29869
形	-9.29883
セ	-9.29948
▁my	-9.29959
しない	-9.30274
費	-9.30348
以下	-9.30562
９	-9.30613
▁echo	-9.30683
対策	-9.30925
なる	-9.31009
▁Re	-9.31019
有	-9.31053
▁V	-9.31069
させる	-9.31077
▁http	-9.3123
チーム	-9.31307
▁un	-9.31348
語	-9.31736
だが	-9.31779
出会い	-9.31785
▁see	-9.31818
▁through	-9.31905
▁k	-9.31919
何か	-9.31994
▁v	-9.32036
せ	-9.32041
予定	-9.32042
ゴ	-9.321
効果	-9.32312
▁J	-9.32394
▁W	-9.32464
男性	-9.32491
馬	-9.32632
▁__	-9.32668
the	-9.32716
ですか	-9.32756
れ	-9.32794
▁range	-9.32799
ページ	-9.32808
というのは	-9.32915
氏	-9.33003
株式会社	-9.33183
だけで	-9.33299
谷	-9.33351
']	-9.33367
ブログ	-9.33372
薬	-9.3343
じ	-9.33456
があった	-9.33476
女子	-9.33489
line	-9.33576
空	-9.33654
次	-9.33687
－	-9.33752
記事	-9.33826
▁はい	-9.33829
役	-9.33876
いました	-9.3397
ン	-9.34067
を行う	-9.34111
天	-9.34156
たら	-9.34175
超	-9.34319
Z	-9.34324
あまり	-9.34326
ity	-9.34372
コース	-9.34414
制度	-9.34577
作業	-9.34587
とする	-9.34588
le	-9.34872
ではない	-9.34914
U	-9.3509
▁でも	-9.35242
▁list	-9.35254
のように	-9.35467
さんが	-9.35519
データ	-9.35593
料理	-9.35714
mm	-9.35876
画像	-9.36009
足	-9.36041
になって	-9.36179
らしい	-9.36201
▁know	-9.36275
通	-9.36437
▁e	-9.36442
主	-9.36478
御	-9.36658
▁system	-9.36722
率	-9.36937
報告	-9.36937
期間	-9.37297
量	-9.37302
大会	-9.37348
％	-9.37349
ファン	-9.37582
▁d	-9.37593
セット	-9.37618
▁Q	-9.37688
場合は	-9.37818
▁file	-9.37862
▁even	-9.3789
られる	-9.37993
られた	-9.38042
ホテル	-9.38321
▁both	-9.38341
ッ	-9.38354
確認	-9.38436
time	-9.38571
▁does	-9.38587
人気	-9.38626
だろう	-9.38635
額	-9.38649
種	-9.38699
夜	-9.38798
開発	-9.38822
▁その	-9.39268
▁right	-9.39312
変更	-9.39341
▁result	-9.39757
ive	-9.4021
公	-9.40303
▁very	-9.40325
かなり	-9.40335
されています	-9.40376
アップ	-9.40401
ボ	-9.40487
ません	-9.4075
相談	-9.40997
log	-9.41016
ケース	-9.4109
ランキング	-9.41111
メール	-9.41383
々	-9.41566
としては	-9.41605
アプリ	-9.41729
コン	-9.41765
and	-9.419
co	-9.41914
▁must	-9.42042
そ	-9.42102
もっと	-9.42201
シリーズ	-9.42226
まず	-9.42377
min	-9.4247
中の	-9.42493
体験	-9.4253
業務	-9.4261
をする	-9.42621
実	-9.42828
すぐに	-9.42902
太	-9.42992
人間	-9.43028
▁after	-9.43267
入	-9.43372
のために	-9.43656
自分	-9.43766
んで	-9.43773
append	-9.4381
こんな	-9.43835
考え	-9.43932
取り	-9.43953
アン	-9.44004
▁g	-9.44011
様々な	-9.44067
▁much	-9.44117
自	-9.44147
宮	-9.4419
井	-9.44267
test	-9.44295
例	-9.44386
":	-9.4444
多	-9.44562
ワ	-9.44596
文化	-9.44768
設定	-9.4485
毎日	-9.4488
▁脚注	-9.4488
王	-9.45026
ど	-9.45034
▁r	-9.45038
こう	-9.45075
予約	-9.45104
it	-9.45114
▁help	-9.45193
ただ	-9.45254
君	-9.45255
テレビ	-9.45272
となり	-9.45283
The	-9.45303
▁平成	-9.45375
米	-9.45469
とき	-9.4551
▁str	-9.45528
an	-9.45604
pi	-9.45621
／	-9.45807
ると	-9.45822
国際	-9.45833
すれば	-9.46006
ケ	-9.46007
よね	-9.46299
熱	-9.46397
パン	-9.46442
▁while	-9.46472
jp	-9.46623
件	-9.46663
たり	-9.46726
▁name	-9.46737
治療	-9.46793
……	-9.46812
安	-9.46825
ヤ	-9.4691
条件	-9.46957
通り	-9.47076
at	-9.4714
黒	-9.47155
▁years	-9.47283
▁me	-9.47361
▁${	-9.47417
それを	-9.47551
バス	-9.47579
▁int	-9.47602
一番	-9.4761
対象	-9.47653
▁water	-9.47704
サン	-9.47756
重	-9.47777
up	-9.47799
感じ	-9.47857
を使って	-9.47939
no	-9.47978
番組	-9.47993
カー	-9.48043
巻	-9.48101
家族	-9.48164
スポーツ	-9.48402
その後	-9.48412
経営	-9.48709
▁O	-9.48711
実施	-9.49044
試験	-9.49072
思い	-9.49083
関連	-9.49085
毛	-9.49096
経済	-9.49444
開催	-9.49495
}$	-9.49496
init	-9.49498
運動	-9.49529
行動	-9.496
ll	-9.49605
朝	-9.49686
実際に	-9.49714
軍	-9.49764
流	-9.49792
▁}	-9.49817
寺	-9.49829
ソ	-9.49893
処理	-9.49955
してください	-9.50023
key	-9.50134
経験	-9.50165
▁	-9.50199
年生	-9.50273
▁following	-9.50396
選手	-9.50447
医療	-9.50648
ヒ	-9.50728
なし	-9.50788
value	-9.5082
されて	-9.50854
放送	-9.50863
さんは	-9.50871
▁values	-9.50914
ve	-9.51234
来	-9.51258
橋	-9.51464
紹介	-9.51496
ものです	-9.51541
ようです	-9.51655
▁problem	-9.51725
制	-9.51953
他	-9.52011
成	-9.52048
春	-9.52061
ライン	-9.52123
▁three	-9.52384
更新	-9.52427
▁found	-9.52448
後に	-9.5246
ment	-9.5256
っている	-9.52603
科	-9.52668
個人	-9.52717
▁order	-9.52796
ひ	-9.52818
しており	-9.52844
を持つ	-9.52849
年間	-9.52865
初めて	-9.53046
組	-9.53099
dir	-9.53133
ブランド	-9.53273
したり	-9.53279
味	-9.53293
になり	-9.53349
as	-9.53359
又は	-9.53426
中国	-9.5364
▁@	-9.5366
会員	-9.53701
勝	-9.53727
len	-9.53736
サイズ	-9.53763
旅行	-9.5385
現在	-9.53903
タイプ	-9.53932
▁form	-9.53965
bin	-9.54018
add	-9.54058
どんな	-9.54164
もある	-9.54167
企画	-9.54293
▁well	-9.54332
ポ	-9.54372
健康	-9.5444
館	-9.5445
ですよね	-9.54479
▁being	-9.54554
丸	-9.54614
ということ	-9.54679
▁▁▁▁▁▁▁	-9.54743
がない	-9.54763
高い	-9.54814
▁end	-9.54837
out	-9.5497
当	-9.55076
sh	-9.55085
製品	-9.55202
index	-9.55295
表示	-9.55299
ラン	-9.553
▁There	-9.55334
四	-9.55378
どう	-9.55393
編	-9.55394
州	-9.55431
▁per	-9.5547
▁case	-9.55496
団体	-9.55686
親	-9.55704
枚	-9.55806
開始	-9.5582
▁equation	-9.55892
ぐ	-9.55925
の方が	-9.55931
資料	-9.56173
び	-9.56352
方が	-9.56373
▁As	-9.5644
監督	-9.56482
局	-9.56484
ましょう	-9.56506
ary	-9.56539
▁U	-9.56576
理由	-9.56673
▁answer	-9.56701
電話	-9.56779
▁He	-9.56848
いたします	-9.56914
いない	-9.56975
委員会	-9.57125
星	-9.57225
撮影	-9.5729
とともに	-9.57479
おり	-9.57531
船	-9.57532
きた	-9.57555
歌	-9.57639
店舗	-9.57778
担当	-9.57926
指定	-9.57952
千	-9.58041
クラブ	-9.58055
投稿	-9.58122
公開	-9.58131
▁時計	-9.58288
▁part	-9.5836
顔	-9.58438
死	-9.58487
▁But	-9.58578
中に	-9.58611
委員	-9.58694
el	-9.58726
再	-9.58727
▁type	-9.58751
しております	-9.58788
試合	-9.58832
特別	-9.59138
論	-9.59174
----------------	-9.59251
);	-9.59422
それが	-9.59726
を見て	-9.59815
能力	-9.59908
▁now	-9.60126
ことができます	-9.60177
古	-9.60289
しながら	-9.60356
株	-9.60504
いつも	-9.60517
病院	-9.60604
▁コピー	-9.60735
▁called	-9.60781
総	-9.60804
array	-9.6086
▁len	-9.60948
ビジネス	-9.61048
産	-9.61054
▁fi	-9.61332
}"	-9.61548
割	-9.61683
でしょうか	-9.61709
料金	-9.6173
運営	-9.61731
…。	-9.61761
そういう	-9.61848
▁When	-9.61927
なのか	-9.62032
必要	-9.6206
夫	-9.62088
ハイ	-9.6211
あります	-9.62116
ロー	-9.62186
したら	-9.6222
のため	-9.62223
見て	-9.62249
シー	-9.6228
▁current	-9.62329
対	-9.62436
横	-9.62482
▁area	-9.62483
▁△	-9.62495
八	-9.62562
非常に	-9.62774
級	-9.62783
楽	-9.62842
▁%	-9.63035
▁$$\	-9.63068
ことに	-9.63073
期待	-9.63115
部分	-9.63132
いく	-9.63181
となります	-9.63215
気持ち	-9.63241
賞	-9.63299
表現	-9.63309
改善	-9.63314
ドラマ	-9.63377
協会	-9.63378
病	-9.63401
座	-9.63401
return	-9.63422
個	-9.63433
発表	-9.63464
組織	-9.63556
ぜひ	-9.63574
検査	-9.636
学生	-9.63809
ベ	-9.6389
上の	-9.63966
五	-9.64073
▁equal	-9.64094
指導	-9.64241
夢	-9.64271
▁No	-9.64274
イメージ	-9.64346
ター	-9.64361
大阪	-9.64408
身	-9.64426
字	-9.64527
会議	-9.64633
」（	-9.64648
max	-9.6471
▁model	-9.64733
リン	-9.64876
記録	-9.65016
est	-9.6529
業	-9.65317
なんか	-9.65465
学習	-9.65565
森	-9.65576
▁take	-9.65661
くる	-9.65668
os	-9.65737
!?	-9.65737
雨	-9.65778
合	-9.65793
なかなか	-9.65826
ており	-9.65847
param	-9.65909
海外	-9.65956
ID	-9.66037
赤	-9.66087
時の	-9.66114
営業	-9.66141
__(	-9.66213
なお	-9.66236
私が	-9.66248
肉	-9.66353
ch	-9.66471
をして	-9.66477
意識	-9.665
▁those	-9.66547
門	-9.66606
費用	-9.66609
課	-9.66678
リング	-9.66705
アメリカ	-9.66719
総合	-9.66745
かもしれません	-9.66899
非	-9.66937
▁そんな	-9.66999
アニメ	-9.67189
▁her	-9.67204
format	-9.67293
まとめ	-9.67388
校	-9.67389
▁■	-9.67398
スト	-9.67403
---|---|---|---|	-9.6745
沢	-9.67452
治	-9.67606
やすい	-9.67734
▁power	-9.67755
にして	-9.67788
絵	-9.67841
▁外部リンク	-9.67915
根	-9.67927
今回は	-9.68095
カラー	-9.68127
やはり	-9.68145
投資	-9.68245
検索	-9.68381
ar	-9.6857
値	-9.68638
』（	-9.68708
紙	-9.68894
終了	-9.68897
▁long	-9.68931
自分が	-9.68939
あと	-9.6906
里	-9.69064
工事	-9.69075
["	-9.6912
ろ	-9.69172
自然	-9.69181
方は	-9.69191
代表	-9.69369
アル	-9.6939
シュ	-9.69517
旧	-9.6956
次の	-9.69628
にとって	-9.69796
ずっと	-9.69797
▁information	-9.6992
になっている	-9.6992
犬	-9.69942
県	-9.69945
義	-9.69945
▁don	-9.70084
史	-9.70095
食事	-9.70105
だけど	-9.70144
ダイエット	-9.70144
記	-9.70203
▁question	-9.70225
後の	-9.70264
っと	-9.70368
チェック	-9.70385
▁here	-9.70392
ro	-9.70474
になりました	-9.70488
のでしょうか	-9.70496
葉	-9.70501
章	-9.70563
▁before	-9.70569
man	-9.7067
としても	-9.70769
ふ	-9.70808
などを	-9.70891
注	-9.71115
ツアー	-9.71128
あの	-9.71333
夏	-9.71555
を見	-9.71571
左	-9.71598
ne	-9.71607
入り	-9.71724
自分で	-9.71749
▁second	-9.718
前の	-9.71832
器	-9.71862
席	-9.71888
集	-9.71912
▁under	-9.71963
結婚	-9.72016
全国	-9.72035
スター	-9.72058
世	-9.72075
市場	-9.72253
・・・。	-9.72305
脱毛	-9.72308
猫	-9.72325
などで	-9.72373
ものの	-9.72374
子ども	-9.72443
松	-9.72547
ラー	-9.72609
なぁ	-9.72697
ちゃんと	-9.72785
されます	-9.7289
ニュース	-9.72957
▁us	-9.73014
sqrt	-9.73363
et	-9.73364
好きな	-9.7338
▁They	-9.73389
掲示板	-9.73389
。。。	-9.73405
▁j	-9.73434
質問	-9.73477
▁①	-9.73531
作り	-9.73559
英語	-9.73586
けれど	-9.73795
▁h	-9.73819
][	-9.7383
ぶ	-9.73838
▁high	-9.73866
目的	-9.73914
料	-9.74001
だけでなく	-9.74096
ということで	-9.74154
all	-9.74218
目標	-9.74246
課題	-9.74257
基準	-9.74346
ことができる	-9.74377
不安	-9.74474
PC	-9.74558
シャ	-9.74615
print	-9.74741
発売	-9.74758
None	-9.74765
電	-9.74841
差	-9.74899
準備	-9.74934
シーズン	-9.74989
取引	-9.75015
▁world	-9.75054
▁means	-9.75173
▁An	-9.75302
▁above	-9.75389
中央	-9.75438
尾	-9.7544
信	-9.75458
▁change	-9.75539
OK	-9.75559
▁②	-9.75574
時代	-9.75762
▁assert	-9.75781
ペ	-9.75782
とした	-9.75834
▁students	-9.7584
num	-9.75847
▁made	-9.75918
士	-9.75953
ケア	-9.76033
人に	-9.76051
雪	-9.76058
プレイ	-9.76074
することで	-9.76103
権	-9.7614
かも	-9.76318
の場合	-9.76334
▁And	-9.76408
増	-9.76422
院	-9.76537
おすすめ	-9.76593
▁sum	-9.76661
人物	-9.76666
▁◆	-9.7668
▁日本	-9.76708
ian	-9.76727
その他	-9.76745
付き	-9.76765
江	-9.76774
楽しい	-9.76836
研修	-9.76887
住宅	-9.7692
LINE	-9.76993
)	-9.77
▁points	-9.77004
▁total	-9.77013
広告	-9.77231
プラン	-9.77263
ライブ	-9.77268
込み	-9.77289
らない	-9.77402
一緒に	-9.77444
ばかり	-9.7748
スタイル	-9.77486
▁state	-9.77522
草	-9.77527
ぎ	-9.77547
項目	-9.77569
sum	-9.77604
公園	-9.77615
簡単に	-9.77632
▁energy	-9.77637
声	-9.77659
塩	-9.77682
ときは	-9.77723
dict	-9.77733
プログラム	-9.77845
カメラ	-9.77882
母	-9.77966
—	-9.77975
と言う	-9.77989
漫画	-9.78057
裏	-9.7808
▁down	-9.78082
for	-9.78168
▁start	-9.7818
連	-9.78218
攻撃	-9.78249
お店	-9.78297
ただし	-9.78539
事件	-9.78613
やっぱり	-9.78672
年齢	-9.78794
していく	-9.7882
メニュー	-9.78828
秋	-9.78853
事故	-9.78965
玉	-9.78967
▁Reasoning	-9.78993
利	-9.79005
明治	-9.79101
▁object	-9.79103
メンバー	-9.79111
だし	-9.79219
可能	-9.79227
un	-9.79257
子供	-9.79274
早く	-9.79316
小学校	-9.79495
▁+=	-9.79511
清	-9.79527
られ	-9.79533
▁All	-9.79562
両	-9.7961
▁method	-9.79627
▁want	-9.79704
服	-9.79854
ホ	-9.79881
相	-9.79901
類	-9.79942
達	-9.79961
良	-9.79969
高校	-9.80089
▁Y	-9.80167
久	-9.80271
持ち	-9.80273
訳	-9.80351
▁think	-9.80384
質	-9.80427
].	-9.80433
岩	-9.80456
小さな	-9.80481
心配	-9.80494
▁o	-9.80562
そうな	-9.80572
右	-9.80604
ときに	-9.80623
が多い	-9.80737
未	-9.80798
df	-9.80937
必ず	-9.81221
▁私は	-9.81228
一般	-9.81253
スタッフ	-9.81273
現	-9.81297
▁length	-9.8137
階	-9.81436
と同じ	-9.8147
以下の	-9.81523
雄	-9.81554
^^	-9.81596
ること	-9.81607
素材	-9.8174
銀行	-9.81865
."	-9.81916
のに	-9.82014
ia	-9.82024
▁every	-9.82041
行く	-9.82053
吉	-9.82066
–	-9.82129
じゃない	-9.82133
▁back	-9.82139
▁新	-9.82192
▁another	-9.82228
▁sub	-9.82241
▁good	-9.82244
一度	-9.82253
存在	-9.82293
np	-9.82349
れる	-9.82366
▁output	-9.82375
um	-9.82409
限定	-9.82536
決定	-9.82567
波	-9.82727
地区	-9.82753
ぞ	-9.82964
してる	-9.82986
香	-9.8304
好き	-9.83091
日の	-9.83139
制作	-9.83165
行為	-9.83195
審査	-9.8322
出演	-9.83257
知	-9.83264
付	-9.83265
アイ	-9.83279
ty	-9.83328
配信	-9.83442
悪	-9.83588
でしたが	-9.8362
▁possible	-9.8365
であれば	-9.83825
引き	-9.84016
林	-9.84039
意味	-9.84101
▁key	-9.84136
▁size	-9.84149
あるいは	-9.84178
フリー	-9.84247
違う	-9.84352
スーパー	-9.84367
たち	-9.84415
ヶ月	-9.84435
▁mean	-9.84498
収入	-9.84512
青	-9.84523
変化	-9.84564
True	-9.84718
アイテム	-9.8479
▁input	-9.84817
連絡	-9.84918
現在の	-9.84921
強い	-9.8504
▁less	-9.85055
理	-9.85056
交換	-9.85113
のも	-9.85145
▁important	-9.85201
者の	-9.85213
of	-9.85221
文章	-9.85246
街	-9.85287
info	-9.8537
知識	-9.85383
練習	-9.85427
レベル	-9.85473
▁life	-9.85474
園	-9.85558
を受け	-9.85571
しても	-9.85641
−	-9.85751
つき	-9.85757
のための	-9.85825
となっている	-9.85854
実は	-9.85883
付け	-9.85904
てしまう	-9.85908
マー	-9.86005
百万円	-9.86058
変	-9.86075
教室	-9.86135
保険	-9.86193
成長	-9.86194
ance	-9.86253
すぐ	-9.86259
py	-9.86307
▁"${	-9.8632
▁last	-9.86322
ファ	-9.86336
ための	-9.86367
ギ	-9.86386
ビル	-9.86412
はない	-9.86415
番号	-9.86443
▁[]	-9.8645
分析	-9.86476
下さい	-9.86575
英	-9.86667
最近	-9.86713
そのまま	-9.86722
^{	-9.86756
ショップ	-9.86776
画面	-9.86776
授業	-9.86829
だって	-9.86838
のこと	-9.86855
かつ	-9.86919
種類	-9.86999
パソコン	-9.87048
之	-9.87164
どの	-9.87165
▁×	-9.87212
トン	-9.87225
ac	-9.8724
▁said	-9.87306
業者	-9.87322
秒	-9.87337
からは	-9.87392
リンク	-9.87408
文字	-9.87424
▁square	-9.87458
みたいな	-9.87497
基本	-9.87541
計	-9.87596
樹	-9.87624
希望	-9.87651
可愛い	-9.87678
時は	-9.87825
例えば	-9.87849
新たな	-9.87978
、『	-9.87989
ism	-9.88165
結構	-9.88184
魚	-9.88258
ip	-9.88304
津	-9.88319
ですよ	-9.88338
映像	-9.88392
展開	-9.88424
}$$	-9.88424
角	-9.88496
▁True	-9.88556
▁check	-9.88603
遊び	-9.8863
!!!	-9.88651
切り	-9.88766
作成	-9.88775
していない	-9.88891
もちろん	-9.88894
▁go	-9.88914
ent	-9.89129
どのような	-9.8914
保	-9.8915
CD	-9.8924
恋愛	-9.89326
理解	-9.89353
先生	-9.89406
net	-9.89436
のだ	-9.8952
ate	-9.89562
出す	-9.89584
命	-9.89651
▁times	-9.89656
アルバム	-9.8969
io	-9.89701
官	-9.89765
ぐらい	-9.89864
されていた	-9.89947
今後	-9.89955
今回の	-9.89965
▁left	-9.89976
▁open	-9.89979
▁day	-9.90054
エネルギー	-9.90069
ist	-9.90074
単位	-9.90077
メーカー	-9.90153
加	-9.9016
最も	-9.90165
設備	-9.90177
やって	-9.90248
志	-9.90289
コード	-9.90292
カン	-9.90317
寝	-9.90348
ドル	-9.90445
指	-9.90462
都市	-9.90473
ワン	-9.90581
構造	-9.90623
▁non	-9.90629
酒	-9.9065
▁これは	-9.9069
▁solution	-9.90757
▁year	-9.90803
桜	-9.90874
▁without	-9.9088
員	-9.9089
食べ	-9.90894
▁さて	-9.90906
設計	-9.90951
``	-9.90964
▁l	-9.91095
野菜	-9.91097
印象	-9.91123
へと	-9.91148
募集	-9.91172
**	-9.91176
だと思います	-9.91244
熟女	-9.91302
金額	-9.91368
ure	-9.91446
時期	-9.91481
旅	-9.91491
▁done	-9.91553
用の	-9.91562
▁お	-9.91565
調整	-9.91578
▁process	-9.91581
あった	-9.91621
▁around	-9.9163
産業	-9.91635
向け	-9.9164
displaystyle	-9.91665
言葉	-9.9176
ベル	-9.91912
政	-9.91915
以上の	-9.91942
勉強	-9.91963
スマホ	-9.91978
te	-9.92039
節	-9.9205
キー	-9.92053
▁group	-9.92159
かもしれない	-9.92253
安い	-9.9238
▁real	-9.92404
カバー	-9.92418
args	-9.92463
武	-9.92465
地方	-9.92565
通信	-9.92624
}}	-9.92657
age	-9.92819
IT	-9.9285
([	-9.92887
強	-9.92904
みんな	-9.92911
サポート	-9.92934
出し	-9.92937
リスク	-9.92969
坂	-9.92982
市民	-9.93001
最大	-9.93038
▁Let	-9.93052
民	-9.93136
▁own	-9.93139
▁side	-9.93151
職員	-9.93161
に行く	-9.932
クラス	-9.93202
▁still	-9.93224
ピ	-9.9326
提供	-9.9326
▁read	-9.9328
選択	-9.9334
キャラ	-9.93371
そこで	-9.93525
以外の	-9.93688
ほ	-9.93691
七	-9.93748
▁ただ	-9.93804
安全	-9.93845
ゼ	-9.93876
▁common	-9.93901
部屋	-9.93921
要	-9.94012
カフェ	-9.94042
はず	-9.94052
ニー	-9.94057
タイ	-9.94058
じゃ	-9.94062
掲載	-9.94113
shape	-9.94135
タイム	-9.94145
▁did	-9.94147
週間	-9.94215
セックス	-9.94245
de	-9.94252
レース	-9.94263
ine	-9.94268
▁try	-9.94269
▁might	-9.9429
フィ	-9.94421
org	-9.94458
rs	-9.94466
input	-9.94498
広	-9.94554
障害	-9.94567
と共に	-9.94597
▁during	-9.94637
倍	-9.94699
安心	-9.94712
ものを	-9.94745
が多く	-9.94845
▁elif	-9.94853
を含む	-9.94903
肌	-9.94926
オープン	-9.95017
観	-9.95053
今日は	-9.95149
重要な	-9.95242
だったので	-9.95281
プロジェクト	-9.95314
案	-9.95333
▁small	-9.95365
コメント	-9.95402
それぞれ	-9.95462
項	-9.95463
▁今日は	-9.95541
と思って	-9.9556
半	-9.95579
string	-9.95748
予想	-9.95878
神社	-9.95946
ul	-9.95976
リスト	-9.96035
▁force	-9.9607
▁body	-9.96089
されました	-9.96096
▁next	-9.96186
▁often	-9.96196
インターネット	-9.96286
タイトル	-9.96336
ness	-9.9637
▁w	-9.96375
ダー	-9.96402
職	-9.96529
逆	-9.96532
ant	-9.96548
ホール	-9.96602
しっかり	-9.96631
面白い	-9.96662
としての	-9.96698
上で	-9.96769
▁since	-9.96783
():	-9.96809
入れ	-9.96811
物語	-9.96829
とっても	-9.96854
彼は	-9.969
フル	-9.96931
ぬ	-9.96932
sin	-9.96975
堂	-9.96979
資金	-9.96998
戸	-9.97074
バンド	-9.97078
ソフト	-9.97086
大変	-9.97133
移動	-9.97206
すべての	-9.97227
弾	-9.9731
・・	-9.97339
傷	-9.97345
km	-9.97357
すごく	-9.97359
go	-9.97406
立ち	-9.97474
戦争	-9.97479
客	-9.97492
ting	-9.97502
出来る	-9.97591
の中に	-9.97659
ですから	-9.97725
体制	-9.97735
▁大	-9.97799
▁text	-9.97815
ことも	-9.97818
▁code	-9.97821
一覧	-9.97849
ジャ	-9.97859
▁One	-9.97895
判断	-9.97955
んだけど	-9.9797
▁add	-9.97986
板	-9.98028
生産	-9.98051
メディア	-9.98082
調	-9.98089
製	-9.98115
ほとんど	-9.98131
第一	-9.98173
編集	-9.98256
温泉	-9.98302
大人	-9.98348
今回	-9.98348
のない	-9.98399
最高	-9.98405
ジュ	-9.98435
んですが	-9.98468
血	-9.98487
人生	-9.98546
kg	-9.98557
京都	-9.98561
群	-9.98663
▁image	-9.98671
html	-9.98691
スタート	-9.98707
▁light	-9.98713
きました	-9.98731
鉄道	-9.98767
事務所	-9.98926
しましょう	-9.98994
させ	-9.98998
ても	-9.99044
★	-9.99149
低	-9.99195
エリア	-9.99222
師	-9.99251
ゲ	-9.99261
＝	-9.99283
残	-9.99329
▁place	-9.99358
output	-9.99368
by	-9.99381
認定	-9.99412
程度	-9.99511
させて	-9.99534
ブル	-9.99543
定	-9.9963
これを	-9.99632
なのです	-9.99634
▁true	-9.99653
▁create	-9.99665
中学校	-9.99804
層	-9.99831
聖	-9.9985
億	-9.99905
活用	-9.99917
良かった	-9.99923
タン	-9.99989
このような	-9.99997
空間	-10.0003
ができる	-10.0004
箱	-10.0007
観光	-10.0009
ことがあります	-10.0014
これが	-10.0016
▁->	-10.0021
▁formula	-10.0022
お金	-10.0024
be	-10.0025
関	-10.0027
ずに	-10.0027
幸	-10.0028
があって	-10.0028
▁space	-10.0034
当該	-10.0037
きっと	-10.0041
検討	-10.005
▁known	-10.0051
################	-10.0054
最後の	-10.0064
べ	-10.0064
もあります	-10.0068
サー	-10.0069
取	-10.007
追加	-10.0075
講座	-10.0076
私も	-10.0078
トップ	-10.0086
発行	-10.0087
法人	-10.0087
奥	-10.009
のうち	-10.0091
査定	-10.0093
ここ	-10.0104
アクセス	-10.0109
▁Now	-10.011
専門	-10.0113
の方	-10.0115
cos	-10.0123
岡	-10.0123
リーグ	-10.0128
製作	-10.0139
教	-10.0141
よかった	-10.0144
会長	-10.0147
リア	-10.0152
成分	-10.0153
つまり	-10.0154
みたい	-10.0155
エロ	-10.0156
▁★	-10.0164
me	-10.0164
▁...	-10.017
言う	-10.0174
バック	-10.0177
なのに	-10.0189
per	-10.0202
http	-10.0206
回答	-10.0207
羽	-10.0208
ガン	-10.0211
あなたの	-10.0212
会場	-10.0217
路	-10.0218
▁show	-10.0223
"]	-10.0224
ユーザー	-10.0225
チャ	-10.0227
骨	-10.0246
科学	-10.0249
介護	-10.0251
エル	-10.0253
一部	-10.0253
モノ	-10.0255
キャラクター	-10.0256
してくれる	-10.0256
▁本	-10.027
注意	-10.0273
政策	-10.028
もあり	-10.0283
Error	-10.0291
▁→	-10.0295
気分	-10.0297
省	-10.03
▁problems	-10.0304
崎	-10.0307
▁say	-10.0307
剤	-10.0309
ma	-10.0311
シーン	-10.0315
歯	-10.0316
経	-10.0318
ホームページ	-10.0321
val	-10.0326
テーマ	-10.033
是非	-10.033
機会	-10.0333
自由	-10.0334
ベスト	-10.0335
read	-10.0344
焼き	-10.0345
URL	-10.0352
別の	-10.0359
恋	-10.0362
▁Z	-10.0365
すごい	-10.0365
▁**	-10.0368
歴史	-10.0374
▁These	-10.0375
読み	-10.0378
買取	-10.0381
所属	-10.0383
脳	-10.0389
六	-10.0395
を持って	-10.0399
▁今	-10.0406
分の	-10.0407
(\	-10.0408
美味しい	-10.0409
全部	-10.0409
彼の	-10.0413
食品	-10.0414
▁below	-10.0414
▁level	-10.0417
減	-10.0418
ha	-10.0424
▁False	-10.0425
ry	-10.043
これらの	-10.0431
"""	-10.0436
よい	-10.0447
鉄	-10.0463
開	-10.0465
油	-10.0467
要素	-10.0469
保護	-10.0484
ストレス	-10.0488
相手	-10.0494
千円	-10.0501
口コミ	-10.0503
▁distance	-10.0507
業界	-10.0514
協力	-10.0517
内の	-10.0517
病気	-10.0521
深	-10.0521
▁graph	-10.0523
▁large	-10.0525
自己	-10.0528
保存	-10.0534
整備	-10.0535
il	-10.0537
かどうか	-10.0539
▁日本の	-10.0541
なくて	-10.0544
太郎	-10.0554
すべて	-10.0556
特徴	-10.0557
count	-10.0563
団	-10.0565
▁\$	-10.0565
予算	-10.0565
na	-10.0572
▁However	-10.0575
せず	-10.0575
好	-10.0581
保証	-10.0581
と一緒に	-10.0581
てきた	-10.0588
start	-10.0588
▁field	-10.059
ことから	-10.0594
▁z	-10.0595
ソン	-10.0597
動	-10.0604
ほか	-10.0604
人妻	-10.0611
はこちら	-10.0619
▁Find	-10.0624
日から	-10.0624
▁based	-10.0631
操作	-10.0632
ファッション	-10.0634
買い	-10.0634
直接	-10.0642
使う	-10.0646
道路	-10.0649
によると	-10.0649
さまざまな	-10.0652
医	-10.0657
▁always	-10.0657
▁positive	-10.0665
▁word	-10.0671
機関	-10.0675
採用	-10.0676
さま	-10.0678
PR	-10.0696
DIR	-10.0696
今まで	-10.0699
▁東京	-10.0704
中で	-10.0709
公式	-10.0709
row	-10.0712
one	-10.0721
▁その他	-10.0724
▁base	-10.0729
ra	-10.0734
くん	-10.0736
ization	-10.0738
less	-10.0742
永	-10.0743
もし	-10.0746
まずは	-10.0753
かった	-10.0753
部門	-10.0765
ほぼ	-10.0774
しまう	-10.0779
ママ	-10.078
シン	-10.0786
▁she	-10.0795
state	-10.0799
カル	-10.0799
プレゼント	-10.0803
今日	-10.0807
をしている	-10.0808
▁con	-10.0809
腕	-10.0813
構成	-10.0817
段	-10.0818
全く	-10.082
百	-10.082
node	-10.0829
雑誌	-10.0834
冬	-10.0834
ial	-10.0837
税	-10.0839
書き	-10.084
入力	-10.0847
code	-10.0851
週	-10.0852
最初の	-10.0857
▁rate	-10.0858
▁look	-10.0865
mo	-10.0866
と思った	-10.0868
早	-10.088
FC	-10.0882
▁results	-10.0883
家の	-10.0887
になると	-10.0891
▁os	-10.0891
行き	-10.0894
娘	-10.0894
の場合は	-10.0897
▁pre	-10.0901
極	-10.0908
球	-10.0913
必要な	-10.0916
端	-10.0917
負担	-10.0921
ies	-10.0924
▁local	-10.0931
ていく	-10.0935
▁#####	-10.0941
ω	-10.0943
電気	-10.0944
実験	-10.095
class	-10.0952
解説	-10.0952
してきた	-10.0953
制限	-10.0958
ファイル	-10.0965
司	-10.0966
echo	-10.0967
▁今回は	-10.097
°	-10.0973
li	-10.0975
▁run	-10.0984
CM	-10.099
欲しい	-10.0994
ad	-10.0999
ましたが	-10.1001
テスト	-10.1001
レビュー	-10.1006
友	-10.1009
都	-10.1013
あれ	-10.1015
げ	-10.1016
オー	-10.1019
train	-10.1027
ミニ	-10.1027
頃	-10.1029
というか	-10.1029
ところで	-10.1045
を受けた	-10.1048
特	-10.1057
これから	-10.1057
動き	-10.1058
すぎる	-10.1061
▁That	-10.1067
こちら	-10.1084
キャンペーン	-10.1088
map	-10.1089
ts	-10.109
を通じて	-10.1091
今の	-10.1092
▁terms	-10.1097
が高い	-10.1109
程	-10.111
解	-10.1116
側	-10.1116
マイ	-10.1126
が必要	-10.1128
一人	-10.114
ヌ	-10.1144
までの	-10.1149
▁ちなみに	-10.115
があれば	-10.1154
福	-10.116
国内	-10.1166
▁solve	-10.1172
シングル	-10.1174
▁write	-10.1174
派	-10.1176
ホーム	-10.1187
Re	-10.1189
ur	-10.1191
image	-10.1192
宿	-10.1198
事務	-10.1213
当然	-10.1215
なぜ	-10.1216
平均	-10.122
されており	-10.1223
申請	-10.1226
new	-10.1229
電子	-10.123
居	-10.1231
▁//	-10.1232
lo	-10.1241
込む	-10.1243
▁!=	-10.1244
鳥	-10.1245
ir	-10.1249
join	-10.1252
▁within	-10.1252
を行い	-10.1253
いま	-10.1255
責任	-10.1257
example	-10.126
に係る	-10.1263
▁Level	-10.1268
日間	-10.1269
▁—	-10.1281
しかも	-10.1283
▁－	-10.1283
汗	-10.1285
気になる	-10.1289
通常	-10.1294
反応	-10.1297
dy	-10.1298
ie	-10.1301
断	-10.1302
幅	-10.1302
??	-10.1304
False	-10.1308
多く	-10.1316
コンテンツ	-10.1318
引	-10.132
begin	-10.1323
▁random	-10.1327
管	-10.1335
ひと	-10.1343
せる	-10.1345
ここで	-10.1348
進	-10.1348
してしまう	-10.1351
となりました	-10.1353
記載	-10.1356
情報を	-10.1359
合い	-10.1361
転	-10.1363
の内容	-10.1365
長い	-10.1368
▁off	-10.1378
▁correct	-10.1379
em	-10.138
son	-10.138
使い	-10.1381
im	-10.1384
config	-10.1386
切	-10.1387
家庭	-10.1391
ぼ	-10.1391
筋	-10.1392
男子	-10.1398
でき	-10.1399
何も	-10.1401
術	-10.1401
▁unit	-10.1402
などが	-10.1404
場合には	-10.1405
エン	-10.1409
▁At	-10.1414
機械	-10.142
ヨ	-10.1423
▁something	-10.1423
当時	-10.1425
解決	-10.1425
応援	-10.1426
user	-10.1431
ステージ	-10.1434
素	-10.1442
雰囲気	-10.1442
普通	-10.1444
▁simple	-10.145
可	-10.1453
それぞれの	-10.1469
計算	-10.147
億円	-10.1474
▁De	-10.1475
見る	-10.1475
工場	-10.1478
運転	-10.1487
DVD	-10.1487
をした	-10.1491
悪い	-10.1494
ありがとうございます	-10.1502
認識	-10.1502
▁New	-10.1505
に対し	-10.1508
日記	-10.1511
茶	-10.1513
時には	-10.1516
敵	-10.1517
▁angle	-10.1518
○	-10.152
首	-10.1524
ter	-10.1525
画	-10.1528
込んで	-10.153
がありました	-10.1531
その他の	-10.1532
▁four	-10.1537
align	-10.1539
いろいろ	-10.1541
スペース	-10.1547
走	-10.1551
url	-10.1553
▁③	-10.1558
製造	-10.1559
常に	-10.156
自動車	-10.1565
▁term	-10.1566
妻	-10.1569
ER	-10.157
ごとに	-10.157
推進	-10.1571
ge	-10.1573
ほしい	-10.1583
▁plt	-10.1584
技	-10.1586
湯	-10.1587
社長	-10.159
買って	-10.1591
theta	-10.1592
全て	-10.1597
一つ	-10.1597
を作る	-10.16
▁speed	-10.1601
比	-10.1611
ありがとうございました	-10.1612
受付	-10.1612
考えて	-10.1613
出版	-10.1613
韓国	-10.1614
副	-10.1617
ロック	-10.1621
つく	-10.1621
たくさん	-10.1625
胸	-10.1626
オン	-10.1628
▁probability	-10.163
コーヒー	-10.1631
am	-10.1631
隊	-10.1641
価値	-10.1641
▁variable	-10.1646
のお	-10.1647
split	-10.1654
すでに	-10.1658
なった	-10.166
▁words	-10.1662
ライ	-10.167
app	-10.1674
べき	-10.1688
できた	-10.1689
params	-10.169
土地	-10.1691
▁source	-10.1691
事項	-10.1692
▁Con	-10.1692
▁mass	-10.1693
ものは	-10.1698
状	-10.1705
父	-10.1705
▁path	-10.1707
▁person	-10.1708
大きい	-10.1718
素晴らしい	-10.1723
講師	-10.1723
説	-10.1723
これまで	-10.1729
ネットワーク	-10.1739
▁math	-10.1744
んですけど	-10.1746
▁view	-10.1747
▁best	-10.175
▁u	-10.1753
かわいい	-10.1755
細胞	-10.1757
▁main	-10.1763
更に	-10.1767
洋	-10.1768
いや	-10.1769
貴	-10.1774
弱	-10.1774
比較	-10.1775
においては	-10.1784
)$	-10.1785
られている	-10.1788
言	-10.1788
在	-10.179
建設	-10.1798
モン	-10.1799
成功	-10.1799
小説	-10.1799
なければ	-10.18
瀬	-10.1803
オンライン	-10.1804
▁table	-10.1805
こういう	-10.1807
像	-10.1808
学会	-10.1811
市の	-10.1812
源	-10.1816
ますが	-10.1818
日本人	-10.1822
米国	-10.1826
▁dis	-10.1827
」、「	-10.1829
未来	-10.1835
▁post	-10.1839
優勝	-10.1843
)」	-10.1847
意	-10.1848
さんに	-10.1851
柄	-10.1852
HP	-10.1854
完成	-10.1855
記憶	-10.1855
資格	-10.1858
▁raise	-10.1862
▁either	-10.1867
後は	-10.1868
られて	-10.1868
感想	-10.1871
祭	-10.1877
一方	-10.1877
ハウス	-10.1877
装置	-10.1878
ユ	-10.1879
▁questions	-10.188
dev	-10.1889
するために	-10.1889
運用	-10.1889
▁ケース	-10.1891
▁matrix	-10.1892
▁amount	-10.1892
設置	-10.1894
▁him	-10.1895
を中心に	-10.19
▁why	-10.1902
拡大	-10.1906
ヘ	-10.1909
▁things	-10.1914
▁single	-10.1917
合計	-10.1921
実績	-10.1926
オリジナル	-10.1934
枠	-10.1935
報	-10.194
先に	-10.1941
逆に	-10.1942
とし	-10.1945
受け	-10.1949
再生	-10.1949
からです	-10.1951
まして	-10.1955
袋	-10.1956
フランス	-10.1957
ated	-10.196
}{\	-10.196
新規	-10.1961
デビュー	-10.1962
クラ	-10.1963
使って	-10.1964
選	-10.1964
ならば	-10.1966
ED	-10.1967
再び	-10.1967
と言って	-10.1971
バイト	-10.1973
株式	-10.1973
輪	-10.1974
ナー	-10.1974
機器	-10.1979
プラス	-10.1981
res	-10.1982
原因	-10.1982
ライト	-10.1992
交通	-10.2004
ヴィ	-10.2008
♡	-10.2012
記念	-10.2013
ating	-10.2014
十	-10.2014
さんと	-10.2015
▁By	-10.202
トイレ	-10.2023
ット	-10.204
彦	-10.2045
ブラック	-10.2046
ありません	-10.2049
を行った	-10.205
model	-10.2057
from	-10.2066
バン	-10.2068
())	-10.2069
▁Challenge	-10.2072
今年	-10.2073
▁log	-10.2077
美しい	-10.2078
▁max	-10.2082
書類	-10.2091
にくい	-10.2092
北海道	-10.2094
行政	-10.2094
▁too	-10.2098
日々	-10.2103
しまった	-10.2109
▁vector	-10.2113
▁関連項目	-10.2118
color	-10.2119
の話	-10.212
▁https	-10.2121
au	-10.2126
▁standard	-10.2128
はありません	-10.213
▁factor	-10.2131
浜	-10.2133
ノー	-10.2133
ジェ	-10.2138
事実	-10.2144
ガス	-10.2144
政治	-10.2158
▁control	-10.2159
▁human	-10.216
工	-10.2161
便	-10.2169
▁children	-10.2177
ゆ	-10.2181
バッグ	-10.2184
演奏	-10.219
▁car	-10.2191
症	-10.22
気が	-10.2203
セミナー	-10.2205
楽しみ	-10.2209
しよう	-10.2214
▁step	-10.2219
末	-10.222
造	-10.2222
▁give	-10.2231
ill	-10.2235
症状	-10.2238
越	-10.2245
近	-10.2248
異	-10.2249
身体	-10.225
系の	-10.2251
生徒	-10.2258
アジア	-10.2258
No	-10.2266
すべき	-10.2267
▁few	-10.2272
▁average	-10.2273
▁functions	-10.2275
不動産	-10.228
新聞	-10.2288
パー	-10.2298
In	-10.23
ロン	-10.23
全然	-10.2301
テン	-10.2303
ですので	-10.2305
竹	-10.2306
ous	-10.2308
▁Do	-10.231
絶対	-10.2311
env	-10.2313
継続	-10.2315
行った	-10.2317
ラジオ	-10.2322
▁position	-10.2323
nd	-10.2324
女の子	-10.2324
なども	-10.2331
▁understand	-10.2332
澤	-10.2334
布	-10.2335
レイ	-10.2337
住	-10.2341
▁except	-10.2342
▁am	-10.2345
を見る	-10.236
日本語	-10.2363
を受ける	-10.2365
ガー	-10.2372
福祉	-10.2374
嬉しい	-10.2378
▁fact	-10.2379
するのは	-10.2383
利益	-10.2385
者が	-10.2389
くれる	-10.24
に関しては	-10.2406
人と	-10.2407
―	-10.2414
基	-10.2416
▁root	-10.2418
▁sample	-10.2419
毎年	-10.2419
ton	-10.242
豊	-10.242
植物	-10.2421
▁Then	-10.2431
メッセージ	-10.2431
▁least	-10.2434
一日	-10.2434
なって	-10.2435
卵	-10.2437
ていない	-10.2445
強化	-10.2445
ストーリー	-10.2447
PS	-10.2451
売	-10.2459
提案	-10.2464
副業	-10.2469
急	-10.2472
為	-10.2477
を使った	-10.2484
の中	-10.249
同年	-10.2495
IN	-10.2501
▁going	-10.2505
▁zero	-10.2506
守	-10.2507
の一部	-10.2508
休	-10.251
を使う	-10.2511
携帯	-10.2513
国民	-10.2514
手術	-10.2516
▁string	-10.2518
満足	-10.2527
▁free	-10.2531
多い	-10.2533
影響	-10.2533
ブラ	-10.2539
時間が	-10.2542
カット	-10.2542
それでも	-10.2545
チケット	-10.2549
▁‘	-10.2552
名前	-10.2554
つつ	-10.2556
名古屋	-10.2556
流れ	-10.2561
ang	-10.2562
実践	-10.2564
ドイツ	-10.258
もので	-10.2581
いろんな	-10.2582
患者	-10.2589
あたり	-10.2602
医師	-10.2605
分野	-10.2605
目に	-10.2609
京	-10.2609
▁Solution	-10.2614
ではありません	-10.2614
ネタ	-10.2617
舞台	-10.2618
サッカー	-10.2618
過去	-10.2618
社員	-10.2621
セン	-10.2623
▁error	-10.2624
スキル	-10.2625
やり	-10.2627
▁小	-10.2628
てる	-10.2629
令和	-10.2631
卒業	-10.2632
gen	-10.2633
書いて	-10.2634
何を	-10.2635
▁put	-10.2637
普通の	-10.2641
素敵な	-10.2643
材料	-10.2644
正しい	-10.2645
ence	-10.2645
安心して	-10.2646
友達	-10.2646
しい	-10.2647
教授	-10.265
基礎	-10.2651
そのため	-10.2651
注文	-10.2665
IC	-10.2669
幸せ	-10.2671
▁Be	-10.2671
使える	-10.2675
▁let	-10.2676
得	-10.2679
なん	-10.2681
交流	-10.2685
図書館	-10.2685
児童	-10.2689
上げ	-10.269
各種	-10.2695
メイン	-10.27
専用	-10.27
サロン	-10.27
TV	-10.2707
レン	-10.271
党	-10.2711
っていた	-10.2712
建築	-10.2715
それに	-10.2717
満	-10.2725
マンション	-10.2726
午後	-10.2726
龍	-10.2733
被害	-10.274
▁better	-10.2746
体重	-10.2749
カップ	-10.275
耳	-10.275
誌	-10.2751
▁calculate	-10.2753
こうした	-10.2754
生まれ	-10.2761
.__	-10.2761
main	-10.2762
言語	-10.2765
出身の人物	-10.2765
と呼ばれる	-10.2767
打ち	-10.2773
農業	-10.2774
アー	-10.2786
ce	-10.2787
丁目	-10.279
持って	-10.2791
▁On	-10.2793
Ａ	-10.2796
仕様	-10.2801
▁general	-10.2801
連携	-10.2805
ut	-10.2809
会社の	-10.281
NHK	-10.2811
公演	-10.2823
nn	-10.2826
作曲	-10.2831
資産	-10.2833
まま	-10.2836
▁product	-10.284
つけ	-10.2843
回復	-10.285
▁array	-10.2855
内に	-10.2862
▁difference	-10.2869
を通して	-10.2869
▁top	-10.2872
のかな	-10.2875
ボール	-10.2875
良く	-10.2876
▁color	-10.2876
現代	-10.2883
発生	-10.2888
ここに	-10.289
したがって	-10.2891
▁default	-10.2892
徳	-10.2892
年から	-10.2893
ビー	-10.2894
配	-10.2896
動物	-10.2897
華	-10.2899
運	-10.29
人で	-10.2909
--	-10.2911
食べる	-10.2916
利用者	-10.2916
▁lines	-10.2918
▁Can	-10.2919
▁Is	-10.2919
というのが	-10.292
▁node	-10.292
落ち	-10.2925
取得	-10.2931
ワーク	-10.2931
ものである	-10.2933
法律	-10.2937
想像	-10.2945
var	-10.2948
コミュニティ	-10.2949
▁days	-10.295
牛	-10.2951
脱	-10.2952
労働	-10.2953
肩	-10.2953
IP	-10.2953
最終	-10.2954
壁	-10.2955
諸	-10.2955
マーク	-10.2969
こそ	-10.297
順	-10.297
ペン	-10.2979
少年	-10.298
収益	-10.2981
姿勢	-10.2984
ランド	-10.2988
▁man	-10.2994
導入	-10.2996
展示	-10.3
date	-10.3
難しい	-10.3008
そのような	-10.3009
まる	-10.3012
勤務	-10.3015
暮らし	-10.302
したこと	-10.3024
ワイン	-10.3031
戦略	-10.3031
自転車	-10.3036
陽	-10.3037
加工	-10.3042
列	-10.3043
▁study	-10.3044
皮	-10.3047
ジー	-10.3047
となっています	-10.3049
行う	-10.3051
会話	-10.3051
出場	-10.3058
ティー	-10.3059
お客様	-10.3062
求人	-10.3064
GO	-10.307
銀	-10.3078
▁come	-10.3081
▁||	-10.3084
努力	-10.3084
議員	-10.3087
佐	-10.3089
▁Here	-10.309
までは	-10.3091
ツール	-10.3093
▁surface	-10.3098
に向けて	-10.3099
感覚	-10.3105
▁Co	-10.3106
難	-10.3108
SP	-10.3108
登場	-10.3109
シート	-10.3111
んですよ	-10.3115
▁required	-10.3116
主に	-10.3116
駐車場	-10.3122
ical	-10.3124
共同	-10.3133
受	-10.3139
》	-10.3147
db	-10.3149
過ぎ	-10.3151
楽しく	-10.3157
人気の	-10.3158
File	-10.3162
腰	-10.3168
無理	-10.3169
アイドル	-10.3171
素人	-10.3172
いただいた	-10.3175
ized	-10.318
▁出典	-10.318
pos	-10.318
ニュー	-10.3182
界	-10.3189
なんで	-10.3192
を持ち	-10.3197
まさに	-10.3201
ab	-10.3204
髪	-10.3204
=$	-10.3204
json	-10.3206
季節	-10.3206
者は	-10.3208
▁really	-10.3213
余	-10.3214
れた	-10.3217
材	-10.3217
行って	-10.322
いう	-10.322
ものが	-10.3221
〉	-10.3222
今は	-10.3225
ハン	-10.323
▁なお	-10.3234
請求	-10.3239
以降	-10.3241
やる	-10.3242
工業	-10.3243
ally	-10.3244
える	-10.3248
コスト	-10.325
クリスマス	-10.3251
損	-10.3252
ザー	-10.3254
大丈夫	-10.3258
あなた	-10.3258
)=	-10.326
すぎて	-10.326
印	-10.3262
レス	-10.3271
切れ	-10.3273
ック	-10.3276
の上	-10.3276
趣味	-10.3281
▁count	-10.3283
times	-10.3285
当社	-10.3286
デジタル	-10.3287
をもって	-10.3293
▁cell	-10.3296
▁together	-10.3297
マル	-10.3298
ice	-10.33
そうだ	-10.3302
意見	-10.3304
顧客	-10.3306
結	-10.3308
ご飯	-10.3314
までに	-10.3319
もなく	-10.3321
転職	-10.3322
感情	-10.3322
結局	-10.3325
現実	-10.3327
てしまった	-10.3332
などに	-10.3334
小さい	-10.3336
▁user	-10.3339
ていました	-10.334
のだが	-10.3346
とにかく	-10.3349
},	-10.3351
Name	-10.3352
ブルー	-10.3358
務	-10.3359
以来	-10.336
時計	-10.3363
すぎ	-10.3365
▁sure	-10.3367
トリ	-10.337
来た	-10.3378
チン	-10.3379
use	-10.3381
コーナー	-10.3385
危険	-10.3386
縁	-10.3389
菜	-10.3392
の問題	-10.3403
lib	-10.3404
いっぱい	-10.3409
事務局	-10.3415
AS	-10.3418
＞	-10.3428
▁hand	-10.3429
蔵	-10.3434
▁weight	-10.3436
思う	-10.344
write	-10.344
▁air	-10.3441
うち	-10.3442
応募	-10.3443
▁population	-10.3445
▁course	-10.3445
そこに	-10.3447
▁&&	-10.3447
際	-10.3451
泉	-10.3451
全ての	-10.3452
▁says	-10.3454
ようで	-10.3456
range	-10.3468
違い	-10.3472
言って	-10.3473
sub	-10.3474
固定	-10.3474
眼	-10.3475
議論	-10.3477
▁constant	-10.3483
頑張って	-10.349
しかない	-10.3494
占い	-10.3494
接続	-10.3495
池	-10.3495
ize	-10.3495
月の	-10.3496
AL	-10.3498
仲間	-10.3499
▁cells	-10.35
▁Example	-10.3502
ative	-10.3504
なんだ	-10.3508
若	-10.3508
▁full	-10.3513
ろう	-10.3514
OS	-10.3521
･	-10.3521
op	-10.3522
▁present	-10.3524
:	-10.3526
bo	-10.3531
修正	-10.3534
第二	-10.3544
コー	-10.3549
反	-10.355
特定	-10.3551
九	-10.3563
雲	-10.3564
兵	-10.3566
大きく	-10.3575
になっています	-10.3579
Web	-10.358
完全	-10.358
▁{}	-10.3581
地域の	-10.3581
▁[[	-10.3583
政府	-10.3585
僕	-10.3587
上に	-10.3593
長く	-10.3593
▁keep	-10.3601
かけ	-10.3602
ありました	-10.3604
精神	-10.3604
深い	-10.3606
トラブル	-10.3607
性格	-10.3608
常	-10.3609
要因	-10.3612
売り	-10.3613
トレーニング	-10.3614
ダウン	-10.3615
▁percent	-10.3616
${	-10.3619
なくなる	-10.3619
参加者	-10.362
話題	-10.3621
能	-10.3622
地震	-10.3623
向	-10.3627
table	-10.3632
するため	-10.3632
ology	-10.3638
SE	-10.3639
バイ	-10.3651
読んで	-10.3654
▁whether	-10.3658
▁'''	-10.3664
ling	-10.3666
の結果	-10.3668
を取り	-10.3668
助	-10.3673
だよ	-10.3676
▁until	-10.3684
建物	-10.369
▁similar	-10.3692
ダメ	-10.3694
あって	-10.3696
姿	-10.3698
込んだ	-10.3708
do	-10.371
▁];	-10.3711
▁Math	-10.3714
純	-10.3714
パック	-10.3719
づくり	-10.3719
失敗	-10.3722
彼	-10.3723
モード	-10.3724
~。	-10.3728
証	-10.3729
」(	-10.373
距離	-10.3735
▁great	-10.3736
最初に	-10.3738
レストラン	-10.3739
俺	-10.3742
クリーム	-10.3743
共有	-10.3745
売却	-10.3748
彼女	-10.3758
事業者	-10.3758
人口	-10.3759
キャリア	-10.3761
もない	-10.3763
不足	-10.3766
▁whole	-10.3767
することが	-10.3768
bar	-10.3771
車両	-10.3772
周辺	-10.3773
▁index	-10.3774
▁little	-10.3774
コピー	-10.3776
トラ	-10.3779
ダイ	-10.378
わけです	-10.378
lim	-10.3783
over	-10.3785
vec	-10.3789
今後の	-10.379
向上	-10.3792
▁Some	-10.3793
事を	-10.3795
idx	-10.3796
十分	-10.3798
graph	-10.38
みる	-10.3805
色々	-10.3805
どうしても	-10.3811
何度も	-10.3816
言い	-10.3816
▁negative	-10.3816
飲み	-10.3816
もしくは	-10.3817
畑	-10.382
ビデオ	-10.3822
交	-10.3822
既に	-10.3824
合う	-10.3824
展	-10.3825
であろう	-10.3833
人も	-10.3835
▁今回の	-10.385
▁−	-10.3851
ca	-10.3851
優	-10.3853
一方で	-10.3854
則	-10.3857
グラ	-10.3858
地球	-10.3859
パワー	-10.3859
まあ	-10.3866
介	-10.3866
▁まず	-10.3867
はある	-10.387
増加	-10.3873
楽天	-10.3873
かもしれませんが	-10.3877
ダンス	-10.388
禁止	-10.3882
興味	-10.3884
レー	-10.3885
キロ	-10.3888
se	-10.3889
▁already	-10.389
減少	-10.3891
などは	-10.3894
▁language	-10.3898
湖	-10.3898
状態で	-10.3901
国家	-10.3902
と思い	-10.3907
float	-10.3908
▁distribution	-10.3911
庭	-10.3911
きて	-10.3914
バイク	-10.3915
▁row	-10.3917
sp	-10.3921
ities	-10.393
昔	-10.3933
▁equations	-10.3933
悩み	-10.3933
}/	-10.3936
夫婦	-10.3937
破	-10.3939
最後に	-10.3939
▁circle	-10.394
国の	-10.3944
})	-10.3945
CO	-10.3945
学園	-10.3945
root	-10.3945
どうぞ	-10.395
Type	-10.3951
ON	-10.3954
サイド	-10.3961
やら	-10.3964
段階	-10.3966
▁Since	-10.3966
RO	-10.3966
報道	-10.3967
也	-10.3969
ないので	-10.397
についても	-10.3971
させた	-10.3973
詳細	-10.3982
▁specific	-10.3983
選択肢	-10.3985
速	-10.3986
会計	-10.399
複数の	-10.3993
mon	-10.3995
tic	-10.3997
▁along	-10.4003
腹	-10.4003
時間を	-10.4006
健	-10.4011
強く	-10.4016
run	-10.4016
ことです	-10.4017
を受けて	-10.4018
▁government	-10.4019
宗	-10.4019
年には	-10.4021
スピード	-10.4022
いつ	-10.4025
緑	-10.4025
深く	-10.4027
弁護士	-10.4029
おります	-10.4031
姫	-10.4033
派遣	-10.4036
栄養	-10.4036
だったら	-10.4037
宇宙	-10.4038
券	-10.4041
▁variables	-10.4046
br	-10.4048
day	-10.4049
事例	-10.405
温	-10.4053
参考	-10.4058
▁against	-10.4061
っていう	-10.4064
鼻	-10.4064
ミス	-10.4065
するための	-10.4066
ライフ	-10.407
これで	-10.407
▁including	-10.4071
訪問	-10.4072
not	-10.4074
▁####	-10.4077
サイ	-10.4078
歩	-10.408
将来	-10.4083
案内	-10.4084
ねぇ	-10.4088
※	-10.4095
ise	-10.4097
わけ	-10.4098
可能な	-10.4099
▁cannot	-10.41
脚	-10.41
act	-10.4102
訓練	-10.4106
霊	-10.4107
ap	-10.4109
まり	-10.411
▁株式会社	-10.4112
んですよね	-10.4114
もう少し	-10.4117
不倫	-10.4118
▁include	-10.4119
●	-10.4122
▁triangle	-10.4123
みると	-10.4124
▁food	-10.413
▁break	-10.4134
涙	-10.4139
ルール	-10.4141
ベース	-10.4141
やっと	-10.4147
片	-10.4148
といえば	-10.4148
することができる	-10.415
iPhone	-10.4157
▁cost	-10.4158
年代	-10.4169
方針	-10.4173
細	-10.4176
ケーキ	-10.4177
land	-10.4181
▁float	-10.4181
近く	-10.4183
作家	-10.4184
振り	-10.4189
おいしい	-10.419
ol	-10.4193
error	-10.4198
ルーム	-10.4202
▁Use	-10.4203
金融	-10.4206
.”	-10.4206
ダン	-10.4207
沖縄	-10.4208
▁参考文献	-10.4209
▁iphone	-10.4209
なんと	-10.4211
▁もちろん	-10.4214
def	-10.4214
la	-10.4215
たくさんの	-10.4219
演出	-10.4223
長期	-10.4223
できません	-10.4226
ジョン	-10.4227
だけの	-10.4229
評判	-10.4229
修理	-10.423
靴	-10.4231
元気	-10.4232
下の	-10.4234
に関して	-10.4236
ビール	-10.4237
簡単	-10.4241
ここまで	-10.4241
パス	-10.4241
収録	-10.4243
らず	-10.4245
共	-10.4245
を持っている	-10.4245
炎	-10.4249
自ら	-10.4249
診断	-10.4256
藤	-10.4258
▁far	-10.4259
らしく	-10.4263
ex	-10.4266
▁University	-10.4268
の情報	-10.4269
倉	-10.4271
建	-10.4274
・・・・	-10.4274
汚れ	-10.4276
いか	-10.4276
▁―	-10.4278
グリーン	-10.428
▁due	-10.4282
▁several	-10.4286
合わせ	-10.4287
についての	-10.4289
施術	-10.4291
警察	-10.4293
打	-10.4299
消費	-10.4299
していました	-10.4309
▁ways	-10.4316
}^{	-10.4321
食べて	-10.4325
処分	-10.4332
▁最近	-10.4332
▁short	-10.4335
防止	-10.4335
研究所	-10.4341
$.	-10.4341
▁actually	-10.4343
んですね	-10.4343
友人	-10.435
無料で	-10.4351
視	-10.4359
からも	-10.4362
alpha	-10.4364
返済	-10.4366
の世界	-10.4378
知らない	-10.4378
▁elements	-10.4378
▁ア	-10.4383
スマートフォン	-10.4383
mathrm	-10.4383
筋肉	-10.4383
カレー	-10.4384
教員	-10.4387
失	-10.4389
これも	-10.4394
のもの	-10.4395
思い出	-10.4399
スタ	-10.44
早い	-10.4401
はまだ	-10.4402
ゴール	-10.4404
マッサージ	-10.4409
領域	-10.4412
規定	-10.4415
values	-10.4419
▁certain	-10.4419
探し	-10.442
梅	-10.4422
é	-10.4425
ないと	-10.4425
▁element	-10.4429
▁become	-10.4429
鬼	-10.443
帯	-10.4433
紀	-10.4434
宿泊	-10.4434
初の	-10.4436
ランチ	-10.444
市立	-10.4443
方式	-10.4444
▁page	-10.4446
オフ	-10.4447
▁enough	-10.4449
発見	-10.4451
測定	-10.4451
疑問	-10.4459
の歴史	-10.4461
▁American	-10.4464
バラ	-10.4465
どんどん	-10.4465
印刷	-10.4473
ボタン	-10.4477
ions	-10.4479
▁pro	-10.448
内で	-10.4482
ラーメン	-10.4485
ことがある	-10.4485
方向	-10.4486
雇用	-10.4497
プラ	-10.4501
女性の	-10.4502
▁child	-10.4503
csv	-10.4505
きます	-10.451
奈	-10.4513
芸術	-10.4514
ver	-10.4514
▁again	-10.4517
red	-10.4519
河	-10.4524
遠	-10.4525
▁makes	-10.4526
rate	-10.453
エンジン	-10.4532
▁direction	-10.4534
全体	-10.4536
感染	-10.4538
に合わせて	-10.4539
始めた	-10.4542
科目	-10.4543
っぽい	-10.4547
乗	-10.4549
予防	-10.4554
しゃ	-10.4554
みたいです	-10.4557
というもの	-10.456
ax	-10.4564
▁law	-10.4567
劇場	-10.4568
▁sequence	-10.4574
ショー	-10.4574
To	-10.4574
出身	-10.4578
▁available	-10.458
ard	-10.4581
学部	-10.4581
▁series	-10.4583
糸	-10.4586
いって	-10.4587
=$(	-10.4588
便利	-10.4589
古い	-10.4589
庁	-10.459
空港	-10.459
partial	-10.4592
シャツ	-10.4594
博	-10.46
若い	-10.4604
即	-10.4606
渡	-10.4608
報酬	-10.461
mat	-10.4611
▁move	-10.4614
lu	-10.4614
▁La	-10.4615
終わり	-10.4619
に行って	-10.462
当たり	-10.4622
▁determine	-10.4622
過	-10.4623
ようになった	-10.4625
日まで	-10.4626
少女	-10.4627
▁usually	-10.4628
任	-10.4633
▁スーパー	-10.4635
生地	-10.4637
▁あ	-10.4638
▁Stage	-10.464
なんです	-10.4641
レッスン	-10.4642
突然	-10.4643
▁able	-10.4643
▁◎	-10.4643
)^	-10.4651
の状況	-10.4652
なあ	-10.4656
パターン	-10.4657
自身の	-10.4659
▁¥	-10.4659
▁blood	-10.4661
のではないでしょうか	-10.4664
クロ	-10.4665
キャ	-10.467
自宅	-10.4672
論文	-10.4673
fi	-10.4674
img	-10.4674
高等学校	-10.4675
床	-10.4676
いたら	-10.468
買い物	-10.4682
▁↓	-10.4683
彩	-10.4684
がん	-10.4691
厳しい	-10.4693
イギリス	-10.4696
の特徴	-10.4698
と思っています	-10.4698
魅力	-10.4698
バージョン	-10.4704
先輩	-10.4706
あい	-10.4708
みて	-10.4713
写	-10.4713
確かに	-10.4715
point	-10.4716
外国人	-10.4716
を経て	-10.4717
妊娠	-10.4718
length	-10.4718
▁public	-10.472
九州	-10.472
UP	-10.4724
ちゃ	-10.4728
↑	-10.4729
見える	-10.473
しやすい	-10.4731
形式	-10.4733
であります	-10.4734
▁period	-10.4736
mu	-10.4738
伝	-10.474
▁From	-10.4743
位置	-10.4744
▁Mar	-10.4747
被	-10.4753
通販	-10.4756
竜	-10.4757
聞いて	-10.4758
押し	-10.4761
公式サイト	-10.4763
ということです	-10.4764
完了	-10.4765
看護師	-10.4766
後半	-10.4769
angle	-10.4772
▁pressure	-10.4774
してから	-10.4777
ba	-10.478
勝利	-10.4781
▁exit	-10.4781
現在は	-10.4782
インド	-10.4783
ジャンル	-10.4785
様子	-10.4788
マスター	-10.479
港	-10.4791
答え	-10.4795
収納	-10.4797
ぁ	-10.4797
ピン	-10.4798
虫	-10.48
▁units	-10.4802
月から	-10.4804
の間	-10.4807
▁original	-10.4807
当日	-10.4807
▁>>	-10.4809
バランス	-10.481
智	-10.481
アート	-10.4811
主演	-10.4814
▁call	-10.4815
なければならない	-10.4815
Ｃ	-10.4815
選挙	-10.4818
▁height	-10.482
原作	-10.482
load	-10.4821
txt	-10.4822
限り	-10.4823
の違い	-10.4826
LE	-10.4828
いわゆる	-10.4832
感謝	-10.4833
はもちろん	-10.4834
受験	-10.4836
わかる	-10.4838
彼女の	-10.4841
軽	-10.4844
ミー	-10.4856
接	-10.486
▁normal	-10.4861
世紀	-10.4866
動作	-10.487
置	-10.4871
▁linear	-10.4875
穴	-10.4879
していて	-10.488
kwargs	-10.488
▁written	-10.488
実行	-10.4882
amp	-10.4887
オススメ	-10.4888
▁defined	-10.4888
気に	-10.4888
されていない	-10.4889
▁target	-10.489
):	-10.4897
port	-10.4897
メイク	-10.4899
広く	-10.4903
▁build	-10.4908
コミュニケーション	-10.4909
ついて	-10.491
仁	-10.4913
はずです	-10.4914
エッチ	-10.4917
矢	-10.4917
にする	-10.4918
薄	-10.492
に入って	-10.4922
乗り	-10.4924
通知	-10.4924
▁multiple	-10.4927
テーブル	-10.4928
result	-10.493
隆	-10.493
▁pass	-10.4931
発言	-10.4933
出した	-10.4934
▁cm	-10.4934
label	-10.4935
ful	-10.4938
弁	-10.494
いきます	-10.4944
氏は	-10.4955
いても	-10.4955
目の	-10.4957
甲	-10.496
兄	-10.496
批判	-10.4965
▁sides	-10.4965
con	-10.4965
女優	-10.4966
最	-10.4971
と思いました	-10.4976
するという	-10.4979
競技	-10.4981
クリア	-10.4982
速度	-10.4984
ペット	-10.4984
金利	-10.4987
当時の	-10.499
ゆっくり	-10.4995
▁prime	-10.4996
現状	-10.4996
かん	-10.4999
電車	-10.5002
煮	-10.5004
▁research	-10.5005
▁provide	-10.5006
手段	-10.5011
▁\\	-10.5011
掛け	-10.5012
が良い	-10.5013
保護者	-10.5013
僕は	-10.5015
疲れ	-10.5019
▁natural	-10.5019
んですか	-10.5024
関係者	-10.5025
▁home	-10.5029
逃げ	-10.5029
収	-10.503
があるので	-10.5037
▁never	-10.504
だと思う	-10.5041
cc	-10.5043
相当	-10.5047
▁num	-10.5047
ダウンロード	-10.505
なんとか	-10.5052
雑	-10.5052
提出	-10.5055
ルー	-10.5058
児	-10.5058
完全に	-10.5062
相手の	-10.5069
▁figure	-10.507
plot	-10.5073
富	-10.5074
▁having	-10.5074
美容	-10.5075
とりあえず	-10.5076
ator	-10.5077
策	-10.5078
仕事を	-10.5081
dim	-10.5084
刺激	-10.5088
assertEqual	-10.5091
正直	-10.5094
地元	-10.5095
釣り	-10.5098
▁min	-10.5098
メン	-10.51
表情	-10.5103
感動	-10.5104
具	-10.5114
は何	-10.5116
プリ	-10.5117
改めて	-10.512
ベッド	-10.5122
来る	-10.5123
浦	-10.5124
ors	-10.5128
▁version	-10.5131
ee	-10.5132
ざ	-10.5133
チャンス	-10.5134
ho	-10.5136
にとっては	-10.514
秀	-10.5141
飯	-10.5142
傾向	-10.5144
くれた	-10.5147
セフレ	-10.5148
▁Ro	-10.5151
▁cause	-10.5152
書いた	-10.5152
▁low	-10.5156
ta	-10.5158
申し込み	-10.5158
るのは	-10.5159
ということは	-10.5162
改正	-10.5165
けれども	-10.5171
▁これ	-10.5172
Ｓ	-10.5173
以前	-10.5174
▁さらに	-10.5177
であること	-10.5178
が出る	-10.5182
ti	-10.5183
痛み	-10.5188
信頼	-10.5191
明日	-10.5192
▁My	-10.5194
みた	-10.5195
▁response	-10.5198
始め	-10.5199
区分	-10.52
ガラス	-10.5201
歳の	-10.5203
number	-10.5205
事情	-10.521
▁q	-10.5211
宝	-10.5212
アリ	-10.5212
ようだ	-10.5215
機構	-10.5216
レポート	-10.5219
スクール	-10.5219
笑顔	-10.5219
そんなに	-10.522
見た	-10.5221
いろいろな	-10.5224
独立	-10.5225
)]	-10.5226
要求	-10.5229
途中	-10.5229
圧	-10.523
出来	-10.5233
従	-10.5234
うまく	-10.5237
▁令和	-10.5238
範囲	-10.524
なんだか	-10.5241
ております	-10.5243
レシピ	-10.5244
ったり	-10.5251
ST	-10.5253
▁load	-10.5258
体の	-10.5258
工夫	-10.5259
にあった	-10.5262
飛び	-10.5266
α	-10.5268
同時に	-10.5273
ブロック	-10.5273
▁design	-10.5273
反対	-10.5274
▁types	-10.5274
塾	-10.5278
さえ	-10.528
▁概要	-10.5281
昼	-10.5285
創	-10.5285
間に	-10.5287
▁もう	-10.5288
教えて	-10.5291
っています	-10.5293
▁factors	-10.5293
とはいえ	-10.5294
乾燥	-10.5299
▁history	-10.5302
善	-10.5302
①	-10.5302
残り	-10.5302
▁half	-10.5305
主義	-10.5306
▁greater	-10.5309
▁head	-10.5313
普段	-10.5313
これら	-10.5313
息子	-10.5314
ns	-10.5316
時代の	-10.5324
落	-10.5325
初期	-10.5328
読	-10.533
with	-10.5335
▁old	-10.5337
ヴァ	-10.5338
▁complex	-10.5339
ころ	-10.534
ium	-10.5347
修	-10.5351
影	-10.5351
キン	-10.5353
職業	-10.5355
冊	-10.5356
ないように	-10.5358
氏の	-10.536
AI	-10.5362
hi	-10.5363
▁column	-10.5367
とのこと	-10.5367
]:	-10.5369
ri	-10.5369
なのですが	-10.5369
▁volume	-10.5371
万人	-10.5372
▁numpy	-10.5373
SA	-10.5373
空気	-10.5374
集団	-10.5375
der	-10.5378
無い	-10.5379
陣	-10.5384
か月	-10.5385
放	-10.5385
ちゃんの	-10.5387
▁United	-10.5389
手法	-10.5397
車の	-10.5399
俳優	-10.5401
▁shown	-10.5401
tmp	-10.5403
走り	-10.5404
回り	-10.5406
世代	-10.541
活	-10.541
の高い	-10.5411
してます	-10.5412
オイル	-10.5412
▁making	-10.5415
もらえる	-10.5417
ありがとう	-10.5417
しばらく	-10.5418
▁super	-10.5423
剣	-10.5424
ph	-10.5425
スタジオ	-10.5426
出して	-10.5427
出る	-10.5435
ロード	-10.5438
向き	-10.544
▁lower	-10.544
記述	-10.5441
に近い	-10.5443
そば	-10.5445
my	-10.5451
泊	-10.5452
▁later	-10.5452
のですか	-10.5452
られない	-10.5457
ular	-10.5462
がいい	-10.5463
麻	-10.5467
pt	-10.5467
▁book	-10.5468
クリニック	-10.5471
▁velocity	-10.5473
参	-10.5478
▁expression	-10.5478
普通に	-10.5478
たん	-10.548
axis	-10.5482
の利用	-10.5484
▁game	-10.5485
こんなに	-10.5485
AD	-10.5486
を作って	-10.5487
チェ	-10.5489
事前に	-10.549
来て	-10.5494
化学	-10.5494
皆	-10.5497
NAME	-10.55
▁``	-10.5504
クリ	-10.5506
バル	-10.5508
となって	-10.5509
の流れ	-10.5513
理由は	-10.5513
mean	-10.5515
ラブ	-10.5515
▁金	-10.5515
日目	-10.5515
なくなった	-10.5517
の方は	-10.552
JR	-10.5521
仲	-10.5522
主婦	-10.5523
香り	-10.5524
ite	-10.5525
弘	-10.5528
関東	-10.5531
ご紹介	-10.5531
▁tree	-10.5534
hy	-10.5539
▁それは	-10.5541
優しい	-10.5543
ホワイト	-10.5543
ING	-10.5545
リーダー	-10.5546
部長	-10.5547
ten	-10.5548
公表	-10.5549
リリース	-10.5549
▁higher	-10.5553
▁After	-10.5556
大型	-10.5559
▁event	-10.5566
議会	-10.5567
罪	-10.5575
家に	-10.5576
形で	-10.5577
▁Copyright	-10.5579
自動	-10.5581
実に	-10.5583
ted	-10.5583
les	-10.5585
れない	-10.5587
可能性がある	-10.5588
兼	-10.559
恵	-10.559
災害	-10.5591
SC	-10.5592
▁Or	-10.5594
▁#!/	-10.5596
本部	-10.5597
退	-10.5598
レッド	-10.56
▁shape	-10.5603
ml	-10.5607
必要がある	-10.5609
はとても	-10.5612
栄	-10.5613
お茶	-10.5613
▁learn	-10.5614
\\	-10.5615
底	-10.5615
base	-10.5616
電子書籍	-10.5617
戦闘	-10.5618
MC	-10.5623
ローン	-10.5625
平和	-10.5625
//	-10.5626
様に	-10.5626
本体	-10.5627
てくれる	-10.5629
によっては	-10.563
でございます	-10.563
=\	-10.5632
まるで	-10.5637
有名	-10.5638
杯	-10.5638
▁co	-10.5638
の良い	-10.5642
することができます	-10.5643
の選手	-10.5646
液	-10.5646
跡	-10.5647
商	-10.5649
むしろ	-10.5651
item	-10.5652
屋さん	-10.5654
ゼロ	-10.5654
脇	-10.5655
まったく	-10.5655
".	-10.5664
so	-10.5667
横浜	-10.5667
▁First	-10.5671
怖い	-10.5675
しく	-10.5676
ケン	-10.5676
US	-10.5678
息	-10.5679
▁まずは	-10.568
成績	-10.5682
働き	-10.5688
▁sp	-10.5689
ひとつ	-10.569
考える	-10.5691
替え	-10.5691
の大	-10.5695
検証	-10.5699
張り	-10.5707
version	-10.5707
教会	-10.5709
成果	-10.571
ピアノ	-10.5712
規制	-10.5715
▁species	-10.5715
したもの	-10.5716
!(	-10.5719
キャッシング	-10.5722
もん	-10.5722
▁family	-10.5724
彼女は	-10.5724
が必要です	-10.5728
ります	-10.5729
check	-10.5729
安定	-10.573
に基づき	-10.5732
▁war	-10.5732
別に	-10.5733
いません	-10.5734
抜け	-10.5735
具体的な	-10.5737
相場	-10.5737
に必要な	-10.5737
▁expected	-10.574
▁そこで	-10.5741
▁Test	-10.5741
住所	-10.5744
col	-10.5746
あなたが	-10.5749
▁▲	-10.5749
余裕	-10.5752
ES	-10.5754
ところが	-10.5754
たくない	-10.5758
▁measure	-10.5762
特集	-10.5762
▁support	-10.5763
ジャパン	-10.5765
整理	-10.5765
事業所	-10.5766
神経	-10.5766
数は	-10.5767
乱	-10.5773
著	-10.5778
usr	-10.5778
閲覧	-10.5781
②	-10.5786
SS	-10.5788
title	-10.5788
外部	-10.5788
がいる	-10.5789
回目	-10.5794
▁program	-10.5794
〈	-10.5794
まぁ	-10.5796
念	-10.5799
▁changes	-10.5799
依頼	-10.5806
ish	-10.5809
▁Sa	-10.5809
手数料	-10.581
だな	-10.5811
男女	-10.5814
AT	-10.5819
SNS	-10.582
を用いて	-10.5824
のである	-10.5825
手続き	-10.5826
▁idea	-10.5828
▁bit	-10.5832
める	-10.5836
弟	-10.5837
デン	-10.5839
oc	-10.584
MO	-10.5844
域	-10.5845
郎	-10.585
発送	-10.5852
▁sense	-10.5853
▁With	-10.5854
たちの	-10.5858
注目	-10.5859
List	-10.5861
選び	-10.5862
送料無料	-10.5865
留	-10.5866
ませんでした	-10.5869
が悪い	-10.587
異なる	-10.5872
の一つ	-10.5872
ギター	-10.5873
続ける	-10.5875
枝	-10.5875
なくても	-10.5877
たちが	-10.5878
キング	-10.588
▁command	-10.5883
方に	-10.5884
回数	-10.5884
作用	-10.5885
スープ	-10.5885
mg	-10.5886
▁doesn	-10.5886
▁Returns	-10.5887
みました	-10.589
返	-10.5891
ゴルフ	-10.5892
実際	-10.5897
edit	-10.5898
人数	-10.5901
▁rest	-10.5903
いただき	-10.5903
の種類	-10.5908
痛	-10.5908
伊	-10.5909
▁action	-10.591
益	-10.5912
監査	-10.5913
▁役	-10.5914
廃止	-10.5914
作って	-10.5915
に入る	-10.5917
至	-10.5919
酸	-10.5921
▁social	-10.5923
パリ	-10.5924
▁gives	-10.5929
ka	-10.5929
fa	-10.5936
乳	-10.594
▁hours	-10.5942
lambda	-10.5943
▁temperature	-10.5943
止め	-10.5944
投票	-10.5948
▁天	-10.5951
端末	-10.5954
ロシア	-10.5955
窓	-10.5955
ring	-10.5956
人材	-10.5957
▁St	-10.5958
試	-10.5962
)\	-10.5967
裕	-10.5969
不明	-10.5969
いただく	-10.597
▁others	-10.5971
装	-10.5971
かかる	-10.5972
歩き	-10.5973
led	-10.5973
こともある	-10.5974
ッと	-10.5974
▁sin	-10.5976
ak	-10.5977
▁particular	-10.5978
▁See	-10.5978
ビタミン	-10.5982
つか	-10.5982
するのが	-10.5983
▁got	-10.5984
▁needed	-10.5984
かい	-10.5985
tan	-10.5988
麺	-10.5994
イラスト	-10.5995
詰め	-10.5997
作った	-10.5997
積	-10.6001
等を	-10.6001
新作	-10.6004
▁English	-10.6005
瞬間	-10.6005
▁parts	-10.6008
コレ	-10.6008
ようになる	-10.601
▁Pre	-10.601
を求める	-10.6013
パート	-10.6014
有名な	-10.6014
太陽	-10.6014
わからない	-10.6015
誰	-10.6016
保育	-10.6021
文書	-10.6023
獲得	-10.6024
前から	-10.6024
際に	-10.6025
▁various	-10.6026
安く	-10.6026
position	-10.603
人間の	-10.603
グッズ	-10.603
過去の	-10.6032
アーティスト	-10.6035
いった	-10.6035
タイプの	-10.6036
周	-10.6037
廃	-10.604
$,	-10.6041
人を	-10.6041
▁Ma	-10.6043
Data	-10.6043
▁May	-10.6043
ko	-10.6048
Ｂ	-10.6049
起	-10.6053
▁axis	-10.6054
設立	-10.6057
ick	-10.6058
農	-10.6063
希	-10.6063
菌	-10.6074
ゲスト	-10.6075
▁War	-10.6079
▁systems	-10.608
無し	-10.608
にもかかわらず	-10.6084
衣	-10.6087
標準	-10.6087
配置	-10.6096
支払	-10.6098
ずつ	-10.6098
値段	-10.6098
防	-10.6099
せん	-10.6101
を目指す	-10.6104
▁Number	-10.6105
ci	-10.6106
▁once	-10.611
につきましては	-10.6116
不要	-10.6118
▁men	-10.6119
イタリア	-10.6121
出発	-10.6121
学科	-10.6122
MS	-10.6122
▁---	-10.6122
箇所	-10.6122
しまいました	-10.6122
=(	-10.6123
とう	-10.6123
old	-10.6125
den	-10.6129
を見た	-10.613
させていただきます	-10.613
措置	-10.6132
インタビュー	-10.6134
関西	-10.6135
かつて	-10.6138
ハー	-10.6141
の声	-10.6144
停止	-10.6147
our	-10.6148
▁存命人物	-10.6153
▁その後	-10.6153
▁though	-10.6154
魔	-10.6158
適切な	-10.6161
▁effect	-10.6161
的には	-10.6162
就職	-10.6163
ations	-10.6167
温度	-10.6168
  	-10.6168
台湾	-10.6169
型の	-10.6172
老	-10.6175
昨年	-10.6176
しましたが	-10.6178
回収	-10.6181
特典	-10.6182
ピー	-10.6185
示	-10.6196
郷	-10.6201
っこ	-10.6203
納得	-10.6207
こちらの	-10.6208
複数	-10.6208
AV	-10.621
を示す	-10.6212
参照	-10.6215
ためには	-10.6217
▁away	-10.6219
制御	-10.6219
▁rule	-10.6223
ボディ	-10.6223
ソース	-10.6226
▁increase	-10.6229
▁hard	-10.623
主張	-10.6233
ゆう	-10.6237
ans	-10.6238
新たに	-10.624
共通	-10.624
鍋	-10.6245
お願い	-10.6252
▁Pro	-10.6252
情	-10.6253
▁shows	-10.6255
ru	-10.6256
つい	-10.6256
買う	-10.6256
ほどの	-10.6257
side	-10.6257
▁States	-10.6258
しません	-10.6258
▁Note	-10.6258
▁center	-10.6259
思った	-10.6262
――	-10.6265
ソフトウェア	-10.6268
いただけます	-10.6268
生き	-10.6268
ちょうど	-10.6269
格	-10.6269
歴	-10.6271
om	-10.6272
cr	-10.6276
子育て	-10.6279
▁clear	-10.6279
遊	-10.6279
▁st	-10.6281
メートル	-10.6283
フェ	-10.6284
たく	-10.6285
アルバイト	-10.6287
▁ratio	-10.6287
間の	-10.6291
物件	-10.6292
ルート	-10.6293
二人	-10.6294
キーワード	-10.6297
▁Ra	-10.6301
申込	-10.6301
背	-10.6303
場面	-10.6304
自分は	-10.6307
全体の	-10.6307
白い	-10.631
してしまった	-10.6318
▁う	-10.632
報告書	-10.632
拠点	-10.6322
▁however	-10.6322
▁km	-10.6323
bash	-10.6325
ジョ	-10.6326
mi	-10.6333
▁＜	-10.6334
▁ロレックス	-10.6335
ジン	-10.6336
くて	-10.6339
▁access	-10.634
抜き	-10.6341
共に	-10.6341
追	-10.6343
砂	-10.6345
クス	-10.6345
時から	-10.6346
委託	-10.6346
cdot	-10.6349
フード	-10.6349
ならない	-10.635
住民	-10.6351
▁land	-10.6352
嫌	-10.6353
プール	-10.6358
主な	-10.636
FF	-10.6362
クレジットカード	-10.6362
野球	-10.6362
▁sign	-10.6363
主人公	-10.6365
なります	-10.6365
心の	-10.6368
ay	-10.6369
　　	-10.6374
解析	-10.6376
色の	-10.6378
きちんと	-10.6379
単	-10.6382
姉	-10.6383
委員長	-10.6385
盤	-10.6386
local	-10.639
▁scale	-10.6391
改革	-10.6395
議	-10.6395
NO	-10.6396
,"	-10.6398
数字	-10.6399
▁addition	-10.6404
粉	-10.6404
▁cases	-10.6405
da	-10.6407
時点で	-10.6408
ear	-10.6409
SO	-10.6416
▁working	-10.6416
適用	-10.642
中止	-10.6425
▁convert	-10.6426
札幌	-10.6429
どうして	-10.6431
良かったです	-10.6433
いくら	-10.6434
世界の	-10.6434
group	-10.6437
しっかりと	-10.6438
まだまだ	-10.6441
▁THE	-10.6441
を利用して	-10.6442
ガイド	-10.6446
と思われる	-10.6447
自分に	-10.6449
高齢者	-10.645
ユニット	-10.6452
全員	-10.6452
氷	-10.6453
扱い	-10.6457
we	-10.6458
▁created	-10.6461
▁initial	-10.6462
box	-10.6463
なっている	-10.6466
由	-10.6467
）」	-10.6467
こともあります	-10.6467
天然	-10.6479
に基づく	-10.648
可能性	-10.6482
最新	-10.6485
簡単な	-10.6487
▁rather	-10.6488
▁five	-10.6489
▁article	-10.649
領	-10.6492
space	-10.6493
target	-10.6494
好み	-10.6495
he	-10.6495
▁groups	-10.6496
おそらく	-10.65
▁interest	-10.65
性能	-10.6501
職場	-10.6501
挑戦	-10.6504
出会い系サイト	-10.6505
▁☆	-10.6506
防災	-10.6507
▁age	-10.6508
毎月	-10.6509
FILE	-10.651
]]	-10.651
▁brain	-10.6512
コート	-10.6514
▁itself	-10.6514
にかけて	-10.6515
ぽ	-10.6515
到着	-10.6517
をはじめ	-10.6519
ii	-10.652
ray	-10.6522
大切な	-10.6525
▁development	-10.6531
進化	-10.6532
ens	-10.6534
random	-10.6534
していきます	-10.6534
ミン	-10.6535
▁▁▁▁▁▁▁▁▁▁▁▁▁▁▁	-10.654
ニア	-10.654
色々な	-10.6541
▁当	-10.6543
▁train	-10.6549
実際の	-10.6549
ネットで	-10.6551
▁objects	-10.6551
▁conditions	-10.6552
発展	-10.6553
の記事	-10.6555
聞き	-10.6556
->	-10.6557
アカウント	-10.6558
融資	-10.6559
▁ground	-10.6564
▁simply	-10.6565
PATH	-10.6567
▁Earth	-10.6568
AC	-10.6569
▁paper	-10.657
望	-10.6572
filename	-10.6575
でしょ	-10.6575
(*	-10.6579
書籍	-10.6581
いたしました	-10.6581
▁bar	-10.6581
改	-10.6581
資源	-10.6583
自信	-10.6584
広島	-10.6589
way	-10.6589
ポケモン	-10.6589
po	-10.659
リズム	-10.6593
▁individual	-10.6594
▁lot	-10.6595
そういった	-10.6597
▁learning	-10.6597
arr	-10.6597
流行	-10.6599
市長	-10.66
回転	-10.6601
背景	-10.6604
▁school	-10.6605
クロス	-10.6605
したが	-10.661
冷	-10.6621
うちに	-10.6622
美術	-10.6623
▁こんにちは	-10.6625
の間に	-10.6629
▁early	-10.6629
企業の	-10.663
分類	-10.6631
が一番	-10.6633
現場	-10.6635
▁④	-10.6635
▁complete	-10.6635
連結	-10.6644
沼	-10.6646
ようやく	-10.6649
税込	-10.6651
▁final	-10.6652
ぶり	-10.6652
イー	-10.6654
ぜ	-10.6655
▁Le	-10.6656
東京都	-10.6658
like	-10.6658
▁contains	-10.6658
においても	-10.6661
▁etc	-10.6661
▁特に	-10.6662
▁声	-10.6662
ステ	-10.6668
▁thing	-10.6669
新宿	-10.667
たちは	-10.6671
前後	-10.6672
割引	-10.6677
担当者	-10.6677
ヴ	-10.6681
▁今回	-10.6681
異常	-10.6684
ni	-10.6684
かけて	-10.6694
丁寧に	-10.6694
医学	-10.6695
よし	-10.6695
を感じる	-10.6696
とその	-10.6698
▁スーパーコピー	-10.6703
light	-10.6704
ぃ	-10.6704
ual	-10.6708
わない	-10.6708
▁Therefore	-10.6712
密	-10.6713
レンタル	-10.6715
だけでも	-10.6716
票	-10.6717
お話	-10.6717
▁across	-10.6719
役員	-10.6725
地図	-10.6729
面接	-10.6729
交渉	-10.6729
▁Step	-10.6732
出力	-10.6735
LA	-10.6739
短	-10.6745
日程	-10.6747
eq	-10.6749
勝ち	-10.675
current	-10.6753
ベルト	-10.6754
岸	-10.6757
▁money	-10.6757
default	-10.6759
登	-10.676
▁World	-10.6761
食べ物	-10.6762
▁price	-10.6762
予測	-10.6764
ind	-10.6766
EC	-10.6767
しま	-10.6769
*}	-10.6769
を選ぶ	-10.6769
MP	-10.6771
アウト	-10.6775
彼氏	-10.6776
はこの	-10.6778
▁plot	-10.6779
▁search	-10.678
▁新幹線	-10.6782
上昇	-10.6783
ール	-10.6783
入院	-10.6789
▁files	-10.679
も多く	-10.6791
苦労	-10.6792
見学	-10.6792
物質	-10.6794
シティ	-10.6798
休み	-10.6806
update	-10.6808
ell	-10.6814
続く	-10.6814
軸	-10.6818
が少ない	-10.682
復活	-10.682
形態	-10.6821
休日	-10.6821
ドン	-10.6824
ight	-10.6829
ウィ	-10.683
中間	-10.683
コール	-10.6832
が可能	-10.6836
給	-10.6836
▁theory	-10.6838
パーツ	-10.6839
ヨーロッパ	-10.684
電力	-10.6841
OL	-10.6841
るように	-10.6842
を見ると	-10.6842
▁instead	-10.6843
模様	-10.6843
ていて	-10.6845
に行った	-10.6845
されること	-10.6847
としている	-10.6849
▁tf	-10.6851
▁health	-10.6853
rand	-10.6855
私たち	-10.6858
▁likely	-10.6858
▁im	-10.6863
在庫	-10.6864
した場合	-10.6865
出張	-10.6869
モバイル	-10.6871
の写真	-10.6873
object	-10.6874
https	-10.6876
掃除	-10.6876
今度は	-10.6879
ですし	-10.6883
クリック	-10.6883
▁いつも	-10.6883
一人で	-10.6884
▁potential	-10.6886
▁現在	-10.6888
盛	-10.6892
はあまり	-10.6893
早速	-10.6894
セル	-10.6897
寒い	-10.6898
width	-10.6899
オフィス	-10.6899
お酒	-10.6899
ier	-10.6901
ようになりました	-10.6906
の状態	-10.6906
ME	-10.6909
を超える	-10.691
ification	-10.6911
mathbf	-10.6914
高く	-10.6915
rm	-10.6916
立て	-10.6921
℃	-10.6922
▁〇	-10.6924
孝	-10.6924
取材	-10.6925
メリット	-10.6926
取り組み	-10.6927
loc	-10.6933
苦	-10.6935
子の	-10.6939
補助	-10.6941
▁basic	-10.6946
▁continue	-10.6948
品質	-10.6953
財	-10.6954
IS	-10.6955
お客様の	-10.6958
▁di	-10.6959
tree	-10.6962
スペシャル	-10.6965
▁women	-10.6966
スキー	-10.6966
open	-10.6967
高級	-10.6968
事が	-10.6969
核	-10.6969
いたので	-10.697
ちゃう	-10.697
療法	-10.6972
許可	-10.6972
work	-10.6974
ドラ	-10.6975
属	-10.6975
方の	-10.6978
四半期	-10.698
サブ	-10.698
²	-10.6981
軽く	-10.6983
▁Di	-10.6987
見た目	-10.6989
デート	-10.6989
▁account	-10.699
おお	-10.699
▁More	-10.6991
err	-10.6992
楽曲	-10.6993
シア	-10.6997
▁– 	-10.7
▁${\	-10.7003
ms	-10.7005
方も	-10.7008
内部	-10.7009
激	-10.701
がよく	-10.7011
▁dict	-10.7012
確実に	-10.7015
▁country	-10.7019
本人	-10.7019
やすく	-10.7023
BS	-10.7027
▁content	-10.7029
▁red	-10.703
▁maximum	-10.7031
▁先日	-10.7031
達成	-10.7035
重要	-10.7038
一体	-10.7042
爆	-10.7046
その結果	-10.7047
武器	-10.705
etc	-10.7051
▁among	-10.7054
仏	-10.7056
▁risk	-10.7057
tag	-10.706
年以上	-10.7062
オリンピック	-10.7072
rit	-10.7072
▁today	-10.7073
うちの	-10.7074
それで	-10.7077
▁あと	-10.708
hat	-10.7083
お母さん	-10.7086
俊	-10.7087
お問い合わせ	-10.7088
▁reason	-10.709
▁Class	-10.7092
find	-10.7092
tar	-10.7092
福岡	-10.7093
殿	-10.7093
払い	-10.7094
さない	-10.7095
舞	-10.7096
ワールド	-10.7096
時間は	-10.7097
ともに	-10.7097
が無い	-10.7099
理論	-10.71
ノート	-10.7102
▁前	-10.7102
ps	-10.7102
OR	-10.7105
ける	-10.7107
▁block	-10.7108
辺	-10.7115
当たり前	-10.7116
講演	-10.7117
用品	-10.7119
アメリカの	-10.7123
に伴い	-10.7124
iphone	-10.7124
喜んで	-10.7129
尚	-10.7129
少しずつ	-10.713
滝	-10.7131
api	-10.7137
なの	-10.7139
のではないか	-10.7141
▁limit	-10.7143
出来ない	-10.7144
妹	-10.7144
僕の	-10.7147
上位	-10.7149
権利	-10.7152
mod	-10.7153
パーティー	-10.7154
網	-10.7156
パーク	-10.7159
気軽に	-10.716
側の	-10.716
スポット	-10.7161
ックス	-10.7168
▁works	-10.717
ﾞ	-10.7174
temp	-10.7175
▁seen	-10.7178
定期	-10.7182
mar	-10.7183
の原因	-10.7183
▁df	-10.7192
conf	-10.7194
プロフィール	-10.7195
でもある	-10.7195
実現	-10.7196
できて	-10.7197
やった	-10.7199
天気	-10.7199
航空	-10.7201
凄い	-10.7204
▁en	-10.7204
ごと	-10.7207
折	-10.7207
アンケート	-10.7209
することは	-10.721
向けの	-10.721
================	-10.7211
学者	-10.7213
PA	-10.7215
略	-10.7217
▁environment	-10.7218
になってしまう	-10.7219
-\	-10.7219
読者	-10.7219
let	-10.7223
もらう	-10.7224
トロ	-10.7226
▁大阪	-10.7226
仕	-10.7227
やや	-10.7228
ーン	-10.7228
わけで	-10.7238
格安	-10.7239
はその	-10.724
配布	-10.7243
▁例えば	-10.7243
ds	-10.7245
に加え	-10.7246
TA	-10.7248
bit	-10.7248
絶対に	-10.7249
種類の	-10.7252
決算	-10.7253
現地	-10.7255
把握	-10.7258
ran	-10.7258
コンサート	-10.7261
▁God	-10.7261
part	-10.7261
…」	-10.7261
承認	-10.7261
▁実は	-10.7264
▁Me	-10.7266
一気に	-10.7266
▁Why	-10.7267
そもそも	-10.7268
オプション	-10.7269
sim	-10.7269
を入れて	-10.727
DS	-10.7271
▁こんな	-10.7273
link	-10.7278
方法は	-10.7278
そこから	-10.7286
手を	-10.729
の変化	-10.7295
▁practice	-10.7297
マス	-10.7301
▁Thus	-10.7307
目を	-10.7307
集合	-10.7308
専門店	-10.7312
▁plane	-10.7312
の中でも	-10.732
観察	-10.7321
▁computer	-10.7324
▁integer	-10.7326
TH	-10.7329
▁takes	-10.733
現象	-10.7333
大手	-10.7335
大統領	-10.7335
電源	-10.7336
level	-10.7336
比較的	-10.7336
DE	-10.734
リス	-10.7342
NG	-10.7344
離	-10.7346
もともと	-10.7346
▁inter	-10.7348
▁states	-10.735
pl	-10.7352
先の	-10.7352
▁TEL	-10.7353
送信	-10.7358
あなたは	-10.7358
さんも	-10.7359
▁message	-10.736
なー	-10.7362
筆者が	-10.7362
高速	-10.7363
▁label	-10.7366
エステ	-10.7367
ever	-10.7367
の仕事	-10.7369
をお	-10.737
tor	-10.7371
▁voltage	-10.7371
ja	-10.7372
縦	-10.7372
くれ	-10.7379
お知らせ	-10.7381
▁私の	-10.7389
一郎	-10.7389
▁match	-10.7391
判	-10.7392
に変更	-10.7393
▁produce	-10.7394
何が	-10.7397
▁black	-10.7397
編曲	-10.7401
▁heat	-10.7404
のであれば	-10.7408
堀	-10.7408
dx	-10.7409
半分	-10.741
ah	-10.741
張	-10.7411
がとても	-10.7412
ブリ	-10.7414
もいい	-10.7417
初めての	-10.742
全身	-10.7421
▁loss	-10.7422
を楽しむ	-10.7424
vi	-10.7427
連続	-10.7427
かと	-10.7427
美術館	-10.7428
math	-10.7429
▁Get	-10.7431
form	-10.7435
▁II	-10.7437
▁areas	-10.7437
mail	-10.7437
はどんな	-10.7439
que	-10.744
した後	-10.7445
神戸	-10.7447
習	-10.7448
がなく	-10.7451
プレ	-10.7452
word	-10.7453
グル	-10.7453
ショ	-10.7453
できなかった	-10.7454
態度	-10.7459
力を	-10.7459
られます	-10.746
▁related	-10.746
▁taken	-10.7461
上記	-10.7462
部の	-10.7462
文庫	-10.7463
事は	-10.7469
入って	-10.7471
▁固定リンク	-10.7473
荒	-10.7474
お風呂	-10.7475
信用	-10.7476
アナ	-10.7478
保管	-10.7478
散	-10.7478
▁thought	-10.7479
分からない	-10.7482
まって	-10.7482
んだよ	-10.7486
やつ	-10.7486
平日	-10.7487
今年は	-10.7487
(^^)	-10.7488
酵素	-10.7488
▁Your	-10.7489
入学	-10.7492
小学生	-10.7494
途中で	-10.7494
▁cos	-10.7495
▁Using	-10.7496
▁section	-10.7497
の中から	-10.7509
トーク	-10.751
離婚	-10.751
康	-10.7512
起こ	-10.7512
あげ	-10.7515
▁⇒	-10.7517
▁Go	-10.7521
経過	-10.7523
するか	-10.7523
'])	-10.7524
帰り	-10.7527
▁install	-10.7532
決済	-10.7532
効率	-10.7533
昨日	-10.7534
ノン	-10.7536
lar	-10.7537
いましたが	-10.7538
他に	-10.754
営	-10.7542
BA	-10.7544
想い	-10.7544
はい	-10.7545
忠	-10.7547
題	-10.7548
▁しかも	-10.7549
▁kg	-10.7553
仕組み	-10.7556
アクション	-10.7558
ごろ	-10.756
▁instance	-10.7563
分け	-10.7566
次回	-10.757
▁▼	-10.757
ピンク	-10.7571
艦	-10.7573
族	-10.7573
ことになる	-10.7578
厚	-10.7578
バカ	-10.7579
作る	-10.7582
stream	-10.7586
▁財布	-10.7586
亜	-10.7587
▁sys	-10.7588
null	-10.7588
精	-10.7589
WEB	-10.759
せずに	-10.759
セキュリティ	-10.7591
▁List	-10.7592
▁偽物	-10.7595
話を	-10.7596
Node	-10.7605
ニキビ	-10.7606
off	-10.7607
取締役	-10.7609
cl	-10.761
果	-10.7612
夕方	-10.7613
▁project	-10.7613
詳しく	-10.7614
詩	-10.7617
明らかに	-10.7619
mer	-10.762
という点	-10.7625
筆	-10.7626
▁$(	-10.7628
▁す	-10.7628
を出す	-10.7628
パパ	-10.7629
孫	-10.7631
NA	-10.7631
みんなで	-10.7632
持	-10.7632
月号	-10.7633
カイ	-10.7633
ボックス	-10.7635
▁analysis	-10.7639
負	-10.7642
なか	-10.7643
組合	-10.7644
だけに	-10.7645
化粧品	-10.7647
ler	-10.7648
口座	-10.7648
ible	-10.7649
パートナー	-10.7654
必要があります	-10.7655
フォーム	-10.7659
▁item	-10.7659
言った	-10.7665
財政	-10.7667
キャスト	-10.7672
▁needs	-10.7674
ue	-10.7678
のことを	-10.768
レンズ	-10.7681
ひとり	-10.7681
iter	-10.7683
今後も	-10.7683
▁torch	-10.7683
高校生	-10.7684
▁Set	-10.7684
いなかった	-10.7685
とこ	-10.769
chi	-10.7691
そうで	-10.7692
内職	-10.7694
▁stop	-10.7696
の使用	-10.7696
ッツ	-10.7699
▁ax	-10.77
▁ちょっと	-10.7701
喜	-10.7701
board	-10.7701
広い	-10.7702
道具	-10.7703
lan	-10.7704
食材	-10.7705
テキスト	-10.7705
lat	-10.7706
供給	-10.7706
巻き	-10.771
ついに	-10.771
東北	-10.7712
セール	-10.7713
教師	-10.7715
▁methods	-10.7716
氏名	-10.7717
の影響	-10.7718
買った	-10.7721
送料	-10.7723
are	-10.7728
▁kind	-10.773
チーズ	-10.7732
を紹介	-10.7733
摂取	-10.7735
▁consider	-10.7735
フロー	-10.7735
ong	-10.7736
次に	-10.7737
赤ちゃん	-10.7738
だけではなく	-10.7738
魂	-10.7738
▁そう	-10.7738
ウス	-10.774
もらって	-10.7741
はかなり	-10.7741
MA	-10.7742
last	-10.7743
亀	-10.7744
▁Mo	-10.7746
=${	-10.7746
身長	-10.7749
恋人	-10.7752
を行っている	-10.7752
るので	-10.7753
自分を	-10.7753
strip	-10.7756
▁material	-10.7757
グリ	-10.7757
桃	-10.7757
▁share	-10.7758
列車	-10.7759
まった	-10.7765
してきました	-10.7768
に向けた	-10.777
[-	-10.777
障害者	-10.7773
というのも	-10.7775
調理	-10.7776
▁structure	-10.7776
東海	-10.7779
bi	-10.7779
散歩	-10.7779
表記	-10.778
ron	-10.7781
▁approach	-10.7781
CH	-10.7781
▁fraction	-10.7782
課長	-10.7783
mb	-10.7785
パンツ	-10.779
▁special	-10.779
出産	-10.7792
のほうが	-10.7796
ッチ	-10.7796
統合	-10.7796
トラック	-10.7799
するには	-10.78
すら	-10.7801
ご利用	-10.7802
先生の	-10.7802
たか	-10.7803
福島	-10.7804
てくる	-10.7805
小林	-10.7808
幼稚園	-10.7808
ながらも	-10.781
','	-10.781
予選	-10.7814
山田	-10.7815
▁easy	-10.7817
▁understanding	-10.7818
▁cross	-10.7819
歩いて	-10.782
殺	-10.782
積極的に	-10.782
raw	-10.7824
吉田	-10.7824
の開発	-10.7824
面積	-10.7825
豆	-10.7828
自由に	-10.7831
検	-10.7831
▁disease	-10.7839
source	-10.7839
▁pd	-10.785
keys	-10.7851
候補	-10.7854
陰	-10.7855
に参加	-10.7858
ロング	-10.7861
▁だから	-10.7868
▁minutes	-10.7869
適	-10.7869
低い	-10.787
敗	-10.7872
抵抗	-10.7875
経費	-10.7878
用意	-10.788
▁gas	-10.7882
にした	-10.7884
▁<=	-10.7886
grid	-10.7893
柱	-10.7898
思考	-10.7898
Time	-10.7899
ある程度	-10.7901
今日の	-10.7901
."""	-10.7902
▁la	-10.7903
千葉	-10.7903
柳	-10.7903
降り	-10.7904
ana	-10.7905
得点	-10.7906
ner	-10.7907
高橋	-10.7907
▁|---|---|	-10.7915
喜び	-10.7916
上がり	-10.7917
一部の	-10.7918
▁feet	-10.7918
このように	-10.7924
pe	-10.7929
あらゆる	-10.7932
RE	-10.7933
プレー	-10.7935
ぇ	-10.7936
少しでも	-10.7936
近い	-10.794
不満	-10.7944
RA	-10.7947
▁Web	-10.7948
▁frame	-10.7951
blog	-10.7952
キッチン	-10.7955
ability	-10.7956
購入しました	-10.7956
佳	-10.7958
ast	-10.7959
続き	-10.7959
まい	-10.796
多様な	-10.796
文学	-10.796
乃	-10.796
通常の	-10.796
調子	-10.7962
▁<<	-10.7963
タイミング	-10.7963
隠	-10.7963
▁play	-10.7966
▁further	-10.7966
プレイヤー	-10.7967
back	-10.7967
需要	-10.7968
ウェイ	-10.7968
デイ	-10.7969
の実施	-10.797
財産	-10.797
判定	-10.797
ix	-10.7972
路線	-10.7973
に応じて	-10.7975
絶	-10.798
とり	-10.7986
それから	-10.7991
勝手に	-10.7991
▁draw	-10.7991
ナイト	-10.7994
寒	-10.7999
少ない	-10.7999
いれば	-10.8
▁isinstance	-10.8
ung	-10.8002
できれば	-10.8002
概要	-10.8004
の下	-10.8004
塚	-10.8004
の存在	-10.8005
beta	-10.8005
だったり	-10.8006
と同時に	-10.8007
立場	-10.8009
·	-10.8009
▁past	-10.8011
の説明	-10.8014
オブ	-10.8015
近くの	-10.8015
String	-10.8015
の上に	-10.8016
町の	-10.8018
できるように	-10.8018
興	-10.8022
リアル	-10.8023
致します	-10.8025
▁uses	-10.8027
CC	-10.8028
だろうか	-10.8028
obj	-10.8028
いただきました	-10.8029
土曜日	-10.8029
上手く	-10.8029
統計	-10.8031
Id	-10.8031
▁東	-10.8032
トー	-10.8034
▁もし	-10.8035
理事	-10.8036
message	-10.8037
を行います	-10.8039
習慣	-10.8041
れて	-10.8042
CA	-10.8045
▁Tri	-10.8045
読む	-10.8046
大正	-10.8049
サーバー	-10.8051
お菓子	-10.8051
交付	-10.8052
▁came	-10.8053
お願いします	-10.8056
決して	-10.8057
夏の	-10.8059
▁cut	-10.806
日曜日	-10.8062
field	-10.8063
翻訳	-10.8063
ids	-10.8066
静	-10.8066
活躍	-10.8067
揚げ	-10.8067
家で	-10.8067
留学	-10.8072
いきなり	-10.8075
促進	-10.8075
fer	-10.8078
ボー	-10.8079
reg	-10.8081
ここでは	-10.8086
tra	-10.8086
ユー	-10.8088
国立	-10.8089
支給	-10.8089
'],	-10.809
items	-10.8092
犯罪	-10.8092
ィ	-10.8095
クル	-10.8096
行事	-10.8097
Windows	-10.8099
劇	-10.8103
▁definition	-10.8107
▁matter	-10.8108
お客さん	-10.8109
がありません	-10.811
多分	-10.811
の意味	-10.811
義務	-10.811
生物	-10.8112
モー	-10.8114
博物館	-10.8115
最初は	-10.8116
の評価	-10.8116
であるが	-10.8117
臭い	-10.8122
なのだ	-10.8123
().	-10.8124
にならない	-10.8125
▁origin	-10.8125
圏	-10.8125
タグ	-10.8127
確率	-10.8128
DC	-10.8129
▁century	-10.8129
きっかけ	-10.8133
目が	-10.8133
認証	-10.8134
可能性があります	-10.8135
府	-10.8136
皆さん	-10.8137
該当	-10.8139
が出	-10.8149
新幹線	-10.815
続けて	-10.815
▁res	-10.8151
終	-10.8151
肌の	-10.8152
と思いますが	-10.8152
▁previous	-10.8154
研	-10.8155
創造	-10.8156
連載	-10.8159
▁mode	-10.8162
脚本	-10.8164
art	-10.8164
を探す	-10.8164
鍵	-10.8167
▁heart	-10.8167
▁turn	-10.8172
New	-10.8174
▁exactly	-10.8175
装備	-10.8175
盛り	-10.8177
▁>>>	-10.818
広報	-10.818
▁mind	-10.8181
翌	-10.8185
close	-10.8188
する事	-10.819
ますね	-10.819
▁▁▁▁▁▁▁▁▁▁▁	-10.8192
久しぶりに	-10.8194
最大の	-10.8196
^^;	-10.8199
▁ago	-10.8199
であっても	-10.8201
ポン	-10.8202
毎回	-10.8203
phi	-10.8206
TO	-10.821
があると	-10.821
и	-10.8212
ボン	-10.8214
周り	-10.8215
▁US	-10.8216
学び	-10.8218
問	-10.8219
……。	-10.8219
▁date	-10.8221
▁三	-10.8229
有効	-10.8231
step	-10.8232
忘れ	-10.8233
見せ	-10.824
追い	-10.824
名の	-10.8243
解釈	-10.8244
緊張	-10.8244
▁rights	-10.8248
済み	-10.825
一時	-10.8251
▁condition	-10.8253
なぜか	-10.8254
ide	-10.8255
匹	-10.8256
exp	-10.8258
▁provided	-10.8261
攻略	-10.8261
講義	-10.8262
▁map	-10.8263
top	-10.8263
育成	-10.8264
結婚式	-10.8269
補	-10.827
子さん	-10.8274
ファー	-10.8276
)))	-10.8276
▁私も	-10.8277
どういう	-10.8279
有料	-10.8281
ber	-10.8281
日常	-10.8287
[:,	-10.8287
ッシュ	-10.8288
▁third	-10.8288
ければ	-10.8289
▁Inc	-10.8289
▁role	-10.8291
ソロ	-10.8295
一応	-10.8295
延長	-10.8296
うん	-10.8296
▁week	-10.8298
▁white	-10.8299
ボランティア	-10.8301
の変更	-10.8301
議長	-10.8302
アドバイス	-10.8303
それも	-10.8304
エス	-10.8304
疾患	-10.8307
トゥ	-10.8313
〕	-10.8317
こっち	-10.8317
ことにより	-10.8317
便利な	-10.8317
書く	-10.8318
楽器	-10.8319
子どもの	-10.8319
ート	-10.8321
▁subject	-10.8323
嫁	-10.8323
雅	-10.8324
辛い	-10.8326
施工	-10.8327
チャレンジ	-10.8328
そのもの	-10.8328
の設定	-10.8328
ヘッド	-10.8329
中学生	-10.833
▁student	-10.8332
たった	-10.8333
▁considered	-10.8333
と思っている	-10.8334
ile	-10.8339
プロセス	-10.834
▁million	-10.834
しないと	-10.8342
本社	-10.8346
出来事	-10.8346
がたくさん	-10.8347
オーバー	-10.8351
▁イ	-10.8351
可能です	-10.8352
音声	-10.8354
ドア	-10.8354
ゾ	-10.8355
▁なぜ	-10.8356
商品の	-10.8357
氏が	-10.8359
くらいの	-10.836
意外と	-10.8361
(^	-10.8361
▁Of	-10.8361
生命	-10.8364
阿	-10.8364
になること	-10.8366
業績	-10.8366
▁wrong	-10.8367
誰か	-10.8367
ませ	-10.8369
)+	-10.8378
鈴木	-10.8378
body	-10.8379
引き続き	-10.8379
▁close	-10.8379
割り	-10.838
補助金	-10.8382
ドレス	-10.8384
女性が	-10.8385
vision	-10.8387
ki	-10.8387
▁Dr	-10.8387
映	-10.8389
が高く	-10.8396
もらった	-10.8399
ますか	-10.84
松本	-10.8402
pr	-10.8403
▁solutions	-10.8404
LO	-10.8409
笑い	-10.8409
納	-10.8412
生きる	-10.8412
は非常に	-10.8413
*)	-10.8413
まち	-10.8414
▁まぁ	-10.8414
▁useful	-10.8416
に基づいて	-10.8417
プロデューサー	-10.8417
コミック	-10.8418
場所に	-10.8418
控え	-10.8419
宗教	-10.8423
▁major	-10.843
にお	-10.8431
▁equivalent	-10.8432
育	-10.8434
欲	-10.8435
ング	-10.8436
ああ	-10.8437
済	-10.8437
を有する	-10.8438
▁export	-10.8439
出て	-10.8439
▁region	-10.8441
lab	-10.8442
ナン	-10.8443
初心者	-10.8443
顔を	-10.8444
解消	-10.8447
rd	-10.8448
▁水	-10.845
コントロール	-10.8451
マスク	-10.8452
ビン	-10.8454
魔法	-10.8454
したのは	-10.8457
るべき	-10.8458
cat	-10.8461
破壊	-10.8463
後ろ	-10.8463
実習	-10.8463
規則	-10.8464
▁Ch	-10.8468
▁doing	-10.847
▁Show	-10.8471
どのように	-10.8471
スク	-10.8471
▁future	-10.8472
支出	-10.8474
兄弟	-10.8474
伊藤	-10.8474
iv	-10.8476
休憩	-10.8477
変わり	-10.848
`)	-10.8482
に向かって	-10.8486
典	-10.8491
ボード	-10.8492
茂	-10.8492
opt	-10.8492
▁meaning	-10.8493
政権	-10.8494
ple	-10.8495
お試し	-10.8497
部品	-10.8497
協議	-10.8497
ちなみに	-10.8499
特定の	-10.8501
▁Chapter	-10.8503
紅	-10.8506
サークル	-10.8507
母親	-10.8509
獣	-10.8511
若干	-10.8512
徐々に	-10.8513
▁inside	-10.8515
▁prevent	-10.8516
▁global	-10.8518
衣装	-10.852
ya	-10.852
するもの	-10.8522
条例	-10.8527
▁Two	-10.853
▁science	-10.8531
灯	-10.8535
“	-10.8537
心を	-10.8537
create	-10.8538
勢	-10.8538
令	-10.8538
ゴールド	-10.8541
よろしくお願いします	-10.8543
開示	-10.8544
出身の	-10.8544
わけではない	-10.8545
チャンネル	-10.8546
の向上	-10.8548
ことが多い	-10.8548
考え方	-10.8548
午前	-10.8549
プル	-10.8551
▁larger	-10.8555
結論	-10.8556
マリ	-10.8558
浩	-10.8559
▁flow	-10.8559
膜	-10.8561
市町村	-10.8563
order	-10.8563
tain	-10.8565
加入	-10.8566
削除	-10.8569
月期	-10.8571
思わず	-10.8572
オール	-10.8573
相手に	-10.8573
▁levels	-10.8573
中心	-10.8574
黄	-10.8576
食べた	-10.8577
子供の	-10.8582
マンガ	-10.8584
場合があります	-10.8585
効果が	-10.8586
ec	-10.8587
ジャー	-10.8588
大学の	-10.8591
カラ	-10.8592
パフォーマンス	-10.8594
るのが	-10.8595
世の中	-10.8596
害	-10.8599
慶	-10.86
信号	-10.8603
lines	-10.8605
DB	-10.8605
視聴	-10.8607
維持	-10.8608
皮膚	-10.8608
進行	-10.8612
施策	-10.8613
(),	-10.8614
できるだけ	-10.8615
▁```	-10.8616
ぷ	-10.8618
EX	-10.8619
《	-10.8622
語り	-10.8624
▁Man	-10.8625
送	-10.8625
を利用する	-10.8628
に入った	-10.8629
驚き	-10.863
ップ	-10.8631
博士	-10.8631
に伴う	-10.8631
規模	-10.8632
豚	-10.8633
を除く	-10.8633
梨	-10.8638
だからこそ	-10.8639
▁temp	-10.8639
定義	-10.864
matrix	-10.8641
地元の	-10.8641
▁added	-10.8642
もあった	-10.8643
書店	-10.8643
Ⅱ	-10.8646
status	-10.8646
選手権	-10.8648
ウイルス	-10.8649
▁◇	-10.8649
嬉しいです	-10.865
係	-10.8651
中学	-10.8651
▁live	-10.8652
コンピュータ	-10.8654
DA	-10.8659
▁examples	-10.8659
輝	-10.8661
いますが	-10.8661
EL	-10.8664
▁年度	-10.8665
▁exist	-10.8666
ここから	-10.8667
▁ex	-10.8669
フォ	-10.867
の作品	-10.867
願い	-10.867
ロール	-10.8671
電話番号	-10.8674
▁angles	-10.8676
日本では	-10.8676
若者	-10.868
条第	-10.8686
彼が	-10.8687
決	-10.869
フロント	-10.869
~~	-10.8692
独自の	-10.8695
していること	-10.8696
ほうが	-10.8697
++	-10.8704
▁divided	-10.8705
ings	-10.8706
AB	-10.8707
token	-10.871
配送	-10.8712
frame	-10.8713
▁Se	-10.8713
mp	-10.8713
脂肪	-10.8714
はじめて	-10.8716
してみました	-10.8716
▁sort	-10.8721
演	-10.8722
▁decimal	-10.8723
づ	-10.8724
lt	-10.8726
甘	-10.8726
エピソード	-10.8728
▁Na	-10.8729
▁network	-10.8732
ウェブ	-10.8735
不可	-10.8742
作戦	-10.8742
あん	-10.8743
スケジュール	-10.8744
焼	-10.8746
いくつか	-10.8746
以外	-10.8748
▁yet	-10.8748
ダブル	-10.8749
シャンプー	-10.875
ソー	-10.875
▁death	-10.8751
見え	-10.8752
▁motion	-10.8752
そろそろ	-10.8756
の関係	-10.8759
のまま	-10.876
編成	-10.8761
▁whose	-10.8761
これだけ	-10.8762
▁box	-10.8765
ｰ	-10.8768
除	-10.8769
集中	-10.8771
ade	-10.8771
尻	-10.8774
▁Also	-10.8775
仙台	-10.8779
▁comes	-10.878
▁team	-10.8781
しなければならない	-10.8781
="$	-10.8782
ship	-10.8783
に入り	-10.8785
Google	-10.8785
いつでも	-10.8786
こちらも	-10.8789
進む	-10.879
我	-10.879
咲	-10.8792
アプリケーション	-10.8793
エイ	-10.8796
▁writing	-10.8797
携帯電話	-10.8801
▁次に	-10.8801
たっぷり	-10.8802
のだろう	-10.8802
いただける	-10.8803
最近は	-10.8803
中古	-10.8804
名称	-10.8805
▁face	-10.8805
ティング	-10.8806
▁six	-10.881
▁necessary	-10.8812
刀	-10.8817
天皇	-10.8818
投	-10.8821
そこ	-10.8821
始める	-10.8822
command	-10.8823
看護	-10.8823
アレ	-10.8824
をよく	-10.8826
▁feel	-10.8826
しまい	-10.8827
▁ランキング上位商品	-10.8827
FX	-10.8828
CR	-10.883
証明	-10.883
シェア	-10.8833
地下	-10.8837
ff	-10.8838
▁＊	-10.8839
豊かな	-10.8839
一つの	-10.8839
ric	-10.8843
の第	-10.8844
の活動	-10.8844
が違う	-10.8847
原則	-10.8851
ものだ	-10.8852
Ｄ	-10.8852
ねー	-10.8853
ding	-10.8854
話し	-10.8855
▁style	-10.8855
▁frequency	-10.8855
ようと	-10.8858
Ｐ	-10.8858
action	-10.8859
しなかった	-10.886
↓	-10.8863
支配	-10.8868
build	-10.887
メント	-10.8871
▁statement	-10.8874
names	-10.8877
食い	-10.8879
▁upon	-10.888
HOME	-10.888
▁まあ	-10.8884
＋	-10.8886
下記	-10.8886
車で	-10.8888
▁While	-10.8889
▁〒	-10.8889
ls	-10.889
▁京都	-10.8891
誠	-10.8892
養	-10.8893
▁interval	-10.8893
iz	-10.8895
メールアドレス	-10.8905
と思っていた	-10.8906
粒	-10.8909
▁believe	-10.8909
内容は	-10.891
tile	-10.8911
何とか	-10.8913
境	-10.8914
tr	-10.8915
困難	-10.8917
いつか	-10.8917
受賞	-10.8917
翌日	-10.8922
活動を	-10.8925
の中には	-10.8927
されない	-10.8927
とされる	-10.8928
^{-	-10.8929
変わる	-10.893
▁cancer	-10.893
調べ	-10.893
▁radius	-10.893
市内	-10.8931
自治体	-10.8932
arm	-10.8932
▁She	-10.8932
ning	-10.8933
▁まだ	-10.8935
lor	-10.8935
指摘	-10.8935
両親	-10.8936
ポケット	-10.8936
してくれた	-10.8938
ify	-10.8938
▁激安	-10.8941
年金	-10.8942
▁probably	-10.8943
待ち	-10.8943
たかった	-10.8944
AR	-10.8944
帝国	-10.8945
スペイン	-10.8946
さすがに	-10.8946
確定	-10.8947
▁degrees	-10.8948
統一	-10.8948
ラム	-10.8949
ドライブ	-10.895
サイン	-10.895
と言えば	-10.8951
conv	-10.8953
Twitter	-10.8953
特別な	-10.8957
▁score	-10.8957
▁reduce	-10.8958
極めて	-10.8961
のでしょう	-10.8962
サラダ	-10.8963
探	-10.8963
受講	-10.8964
緊急	-10.8964
みなさん	-10.8966
▁update	-10.8967
感じる	-10.8968
イオン	-10.8968
置き	-10.8969
pa	-10.8971
そこまで	-10.8971
渋谷	-10.8973
AN	-10.8975
ショッピング	-10.8979
istic	-10.8979
ション	-10.8981
Amazon	-10.8985
基盤	-10.8987
どうも	-10.8988
トマト	-10.899
充電	-10.8994
賀	-10.8995
日は	-10.8995
▁smaller	-10.8996
チャン	-10.8999
手間	-10.8999
tion	-10.8999
用に	-10.9
▁format	-10.9001
気温	-10.9003
皆様	-10.9006
宣言	-10.9009
チョ	-10.901
しているので	-10.9011
▁Data	-10.9012
EN	-10.9015
attr	-10.9015
パッケージ	-10.9018
防衛	-10.9018
▁context	-10.9019
ココ	-10.902
広場	-10.902
▁plant	-10.9021
ラスト	-10.9022
▁properties	-10.9022
▁looking	-10.9024
見えない	-10.9024
▁それでは	-10.9025
head	-10.9026
できること	-10.9027
静岡	-10.9028
SM	-10.9028
おき	-10.9033
民間	-10.9034
▁～	-10.9035
ところです	-10.9035
アパート	-10.9038
sigma	-10.9039
ごはん	-10.9039
嫌い	-10.904
ct	-10.9041
自身	-10.9041
true	-10.9041
るか	-10.9044
衝撃	-10.9045
稲	-10.9046
使	-10.9048
延	-10.9048
順位	-10.9051
ブック	-10.9051
分割	-10.9057
犯	-10.906
ところに	-10.906
不思議	-10.9064
働く	-10.9064
SD	-10.9064
軽い	-10.9065
手作り	-10.9066
の名前	-10.9069
支	-10.907
他にも	-10.9071
sample	-10.9071
なに	-10.9072
なりました	-10.9075
毎週	-10.908
いき	-10.9081
ちゃんが	-10.9082
することを	-10.9082
の手	-10.9085
▁address	-10.9085
と言われる	-10.9085
所得	-10.9087
知事	-10.9087
伸	-10.9089
に出	-10.9091
証拠	-10.9091
たぶん	-10.9091
OP	-10.9094
駅前	-10.9096
)/	-10.9096
であると	-10.9098
next	-10.9099
▁allow	-10.9099
の効果	-10.9099
▁steps	-10.9101
給与	-10.9104
機種	-10.9106
鏡	-10.911
約束	-10.911
▁curve	-10.911
▁became	-10.9123
を使い	-10.9123
▁knowledge	-10.9124
限	-10.9125
の花	-10.9125
奈良	-10.9125
電池	-10.9128
個人情報	-10.9129
gar	-10.9131
役割	-10.9133
支持	-10.9135
体力	-10.9136
loss	-10.9137
ゴミ	-10.9138
以上に	-10.9138
DO	-10.914
▁therefore	-10.9141
ケーブル	-10.9144
しまいます	-10.9146
▁Given	-10.9149
を買う	-10.9149
をご覧ください	-10.915
▁according	-10.9152
が少なく	-10.9154
マイナス	-10.9155
死亡	-10.9155
分かる	-10.9158
▁私が	-10.9161
大好きな	-10.9163
▁Each	-10.9163
を考える	-10.9164
塔	-10.9164
▁|---|---|---|	-10.9165
をし	-10.9165
▁西	-10.9167
▁^	-10.917
ｍ	-10.9171
rect	-10.9173
公共	-10.9174
Ｔ	-10.9174
の研究	-10.9176
▁いや	-10.9176
前回	-10.9177
の様子	-10.9181
等で	-10.9184
▁以上	-10.9184
ほう	-10.9184
オーストラリア	-10.9187
手順	-10.919
▁associated	-10.9192
を得る	-10.9193
インストール	-10.9194
▁reference	-10.9196
ログイン	-10.9198
oo	-10.9198
▁Problem	-10.9198
容	-10.9202
をしていた	-10.9202
金属	-10.9206
ug	-10.9206
▁Type	-10.9207
発信	-10.9207
ゲン	-10.9208
ret	-10.921
現金	-10.9211
いくつかの	-10.9215
page	-10.9217
▁Al	-10.9221
形成	-10.9221
からだ	-10.9223
ジャン	-10.9223
胃	-10.9224
収集	-10.9225
▁site	-10.9226
まし	-10.9226
主要	-10.9228
確保	-10.9229
退職	-10.923
spec	-10.923
室内	-10.9233
ious	-10.9235
が出て	-10.9236
ポート	-10.9237
ディー	-10.9241
▁args	-10.9241
ww	-10.9241
につき	-10.9243
アレンジ	-10.9244
予定です	-10.9244
▁John	-10.9247
挨拶	-10.9247
棒	-10.9247
社の	-10.9248
てしまいます	-10.9248
競争	-10.9256
トル	-10.9257
やま	-10.9257
始めて	-10.9257
知って	-10.9258
▁Science	-10.926
doc	-10.9261
保健	-10.9262
飲む	-10.9263
想定	-10.9264
▁behavior	-10.9265
ified	-10.9266
grad	-10.9268
もっとも	-10.9268
をつけて	-10.9269
ect	-10.9271
幕	-10.9272
事態	-10.9273
わかって	-10.9275
▁significant	-10.9275
てください	-10.9276
清水	-10.9277
する方法	-10.928
▁treatment	-10.9281
かた	-10.9282
たので	-10.9282
▁valid	-10.9283
照	-10.9285
▁thus	-10.9285
鹿	-10.9287
の時間	-10.9288
book	-10.9288
射	-10.929
歩く	-10.9291
▁Qu	-10.9293
それだけ	-10.9295
▁ただし	-10.9295
ワイ	-10.9297
▁someone	-10.9298
借金	-10.9302
一般的な	-10.9303
の数	-10.9305
損失	-10.9307
栽培	-10.9307
札	-10.9307
ロス	-10.9309
はほとんど	-10.9311
楽しんで	-10.9311
に入れて	-10.9316
心に	-10.9316
才	-10.9316
言えば	-10.9317
gu	-10.932
std	-10.932
芽	-10.9321
▁events	-10.9321
▁tell	-10.9321
の一	-10.9322
オル	-10.9324
飲んで	-10.9325
中には	-10.9325
風景	-10.9327
を取る	-10.9328
写真は	-10.9329
からね	-10.9329
▁reading	-10.933
▁Un	-10.9332
points	-10.9332
を実施	-10.9333
診療	-10.9334
▁pair	-10.9334
Fi	-10.9335
バトル	-10.9339
朝食	-10.9341
算	-10.9342
物を	-10.9342
ロンドン	-10.9343
parse	-10.9345
専門家	-10.9348
るような	-10.935
▁Part	-10.935
server	-10.9352
ちゃんは	-10.9352
いよいよ	-10.9352
開業	-10.9354
絵本	-10.9354
▁Time	-10.9355
小さく	-10.9355
content	-10.9357
}'	-10.9357
続	-10.9358
ときには	-10.9358
]))	-10.9359
si	-10.9363
人たち	-10.9364
と考える	-10.9365
カロリー	-10.9366
▁sea	-10.9366
ロボット	-10.9366
のだろうか	-10.9369
▁parallel	-10.937
bb	-10.937
とされています	-10.937
ってこと	-10.937
面倒	-10.9371
▁各	-10.9374
▁bool	-10.938
宏	-10.9385
しん	-10.9386
奇	-10.9388
を実現	-10.9389
体を	-10.9392
が強い	-10.9392
▁ball	-10.9394
どこか	-10.9395
力が	-10.9398
取り付け	-10.9398
ご注文	-10.9401
gram	-10.9403
sur	-10.9404
かれ	-10.9404
パネル	-10.9406
ステップ	-10.9406
キス	-10.9406
最後まで	-10.9407
を用いた	-10.9407
浅	-10.9409
美人	-10.9413
year	-10.9416
手に	-10.9417
▁story	-10.9418
コーチ	-10.9421
なんですが	-10.9424
▁Ar	-10.9424
本当の	-10.9424
邦	-10.9426
かと思います	-10.943
負け	-10.943
</	-10.9431
輸入	-10.9434
しい記事を書く事で広告が消せます	-10.9434
人には	-10.9435
チョコ	-10.9436
これまでの	-10.9438
だそうです	-10.9439
SI	-10.9439
IL	-10.9441
▁choose	-10.9442
する場合	-10.9442
マップ	-10.9443
スカ	-10.9444
リオ	-10.9444
潮	-10.9445
さが	-10.9454
基本的に	-10.9457
旨	-10.9458
の魅力	-10.9459
ke	-10.946
伸び	-10.9461
備	-10.9462
避難	-10.9463
礼	-10.9464
おいて	-10.9465
赤い	-10.9467
ハード	-10.9468
ではないか	-10.9468
fe	-10.9471
香港	-10.9474
徒歩	-10.9477
▁バッグ	-10.9479
▁generate	-10.9484
気がします	-10.9489
宇	-10.949
▁double	-10.9492
革	-10.9494
div	-10.9496
event	-10.9499
ai	-10.9499
かわ	-10.9501
個別	-10.9505
▁concept	-10.9507
㈱	-10.9507
価	-10.9508
忙しい	-10.951
▁algorithm	-10.9513
限界	-10.9513
第三	-10.9516
ET	-10.9517
評	-10.9521
祭り	-10.9521
それら	-10.9522
消費者	-10.9522
の方法	-10.9527
mag	-10.9528
お仕事	-10.9529
売買	-10.9533
▁visit	-10.9534
を買って	-10.9534
pass	-10.9535
日本で	-10.9535
レット	-10.9536
▁anti	-10.9536
レコード	-10.9539
マシン	-10.9541
アス	-10.9544
振興	-10.9545
▁email	-10.9547
tal	-10.9549
保育園	-10.9551
struct	-10.9552
低下	-10.9552
に比べて	-10.9553
主催	-10.9553
はありますか	-10.9554
最新の	-10.9555
▁width	-10.9555
BE	-10.956
エア	-10.956
argument	-10.9566
▁relationship	-10.9567
▁themselves	-10.957
たまに	-10.9572
ga	-10.9572
佐藤	-10.9574
▁earth	-10.9574
場所で	-10.9575
だったが	-10.9577
▁animals	-10.9578
楽しめる	-10.9578
ニューヨーク	-10.958
といっても	-10.9586
ないし	-10.9586
合格	-10.9587
▁property	-10.9587
ub	-10.9589
▁follows	-10.9591
準	-10.9595
してほしい	-10.9595
RI	-10.96
lin	-10.9602
音が	-10.9602
車を	-10.9603
ヘア	-10.9604
せい	-10.9604
なかったので	-10.9604
▁全	-10.9605
und	-10.9607
塗り	-10.9608
借り	-10.9609
私たちは	-10.961
▁今日の	-10.9616
しつつ	-10.9617
為に	-10.9619
dt	-10.9621
先日	-10.9622
田中	-10.9624
II	-10.9625
にあります	-10.9626
おか	-10.9626
ny	-10.9629
batch	-10.9629
生成	-10.9629
毒	-10.963
闘	-10.9631
以内	-10.9633
TS	-10.9634
▁copy	-10.9636
スの	-10.9637
;;	-10.9638
▁Figure	-10.9638
▁link	-10.9638
気がする	-10.9638
高さ	-10.9642
▁server	-10.9643
ists	-10.9644
▁fit	-10.9645
マルチ	-10.9648
ster	-10.9651
モンスター	-10.9652
心理	-10.9654
▁division	-10.9655
』(	-10.9655
手当	-10.9657
の部分	-10.9659
term	-10.9662
コラム	-10.9662
ベイ	-10.9663
▁longer	-10.9667
ウェブサイト	-10.9668
gi	-10.9668
昭	-10.967
▁almost	-10.9671
短い	-10.9672
連れ	-10.9674
パラ	-10.9674
協議会	-10.9676
誕生	-10.9678
▁unique	-10.968
▁political	-10.9681
してた	-10.9682
▁explain	-10.9682
によれば	-10.9684
体調	-10.9685
vol	-10.9686
富士	-10.9688
みたいに	-10.9689
フォロー	-10.9689
▁physical	-10.9691
過程	-10.9692
ire	-10.9692
繰り返し	-10.9693
▁Po	-10.9694
指示	-10.9694
審議	-10.9696
func	-10.9697
引用	-10.9697
AP	-10.9697
山口	-10.9697
お気に入り	-10.9698
の前に	-10.9698
▁actual	-10.9698
▁歴史	-10.9699
デス	-10.97
pm	-10.97
▁>=	-10.9703
祝	-10.9704
low	-10.9704
ペア	-10.9704
だという	-10.9705
▁taking	-10.9706
味わい	-10.9712
いるので	-10.9715
ときの	-10.9716
変動	-10.9717
web	-10.9718
あっ	-10.9718
ドゥ	-10.9723
msg	-10.9727
▁parameters	-10.9729
▁big	-10.973
裁判	-10.973
▁moving	-10.9731
block	-10.9732
▁Ta	-10.9732
/$	-10.9734
▁Most	-10.9735
護	-10.9736
陸	-10.9736
少なくとも	-10.9737
が好き	-10.9738
マーケティング	-10.9739
▁""	-10.9739
出会い系	-10.974
仕上げ	-10.974
Android	-10.9742
あとは	-10.9743
スイッチ	-10.9743
かり	-10.9744
の動き	-10.9744
▁market	-10.9745
肌に	-10.9745
を開催	-10.9746
築	-10.9746
狂	-10.9746
ping	-10.9749
!!」	-10.975
』『	-10.9752
ローマ	-10.9753
ham	-10.9755
Question	-10.9755
アプローチ	-10.9756
arg	-10.9757
▁Not	-10.9757
貸	-10.9759
▁city	-10.9759
呼吸	-10.976
記入	-10.9761
しようと	-10.9761
膝	-10.9762
▁shift	-10.9765
資	-10.9765
▁Li	-10.9766
ina	-10.9769
飛	-10.9771
財務	-10.9773
表面	-10.9773
▁License	-10.9774
えて	-10.9774
ow	-10.9777
体に	-10.9778
どっち	-10.978
移転	-10.9782
を出して	-10.9782
π	-10.9782
期限	-10.9783
総会	-10.9786
タッチ	-10.9787
mission	-10.9793
汁	-10.9793
巨乳	-10.9794
ass	-10.9796
YouTube	-10.9796
gt	-10.98
睡眠	-10.9803
CS	-10.9808
急に	-10.9808
▁seems	-10.9809
の方に	-10.9811
元々	-10.9811
▁nature	-10.9815
株主	-10.9815
のほか	-10.9821
▁とりあえず	-10.9821
まれ	-10.9822
沢山	-10.9822
尿	-10.9824
頼	-10.9827
▁apply	-10.9829
関心	-10.9834
exit	-10.9835
▁especially	-10.9836
せて	-10.9836
なるべく	-10.9837
見られる	-10.9839
俺は	-10.9839
pp	-10.9841
▁circuit	-10.9843
▁activity	-10.9844
▁Check	-10.9845
▁save	-10.9848
壊	-10.9848
と考えている	-10.9849
ari	-10.9849
ナイ	-10.985
▁Ex	-10.9851
江戸	-10.9852
フォー	-10.9855
お前	-10.9856
▁chance	-10.9856
大きさ	-10.9858
▁Age	-10.9859
臭	-10.9859
外国	-10.986
の際に	-10.986
奴	-10.9866
dfrac	-10.9868
に来て	-10.987
ることで	-10.987
運行	-10.9872
いずれも	-10.9872
▁json	-10.9872
子が	-10.9877
宣伝	-10.9879
願	-10.9882
大事な	-10.9883
git	-10.9884
ぱ	-10.9887
変わって	-10.9887
読書	-10.989
けん	-10.989
の概要	-10.989
▁lead	-10.9891
誰も	-10.9894
ガル	-10.9894
▁Japan	-10.9897
はなく	-10.9897
▁ホテル	-10.9898
用語	-10.9899
▁remove	-10.99
従業員	-10.9901
するなど	-10.9901
カリ	-10.9902
剛	-10.9903
▁Which	-10.9904
窓口	-10.9904
最低	-10.9904
▁ID	-10.9906
アド	-10.9909
伝統	-10.991
ないこと	-10.9911
が大きく	-10.9913
score	-10.9913
ボス	-10.9914
zeros	-10.9919
オレ	-10.992
っち	-10.9921
▁integers	-10.9922
搭載	-10.9929
方面	-10.9929
▁pattern	-10.9929
▁argument	-10.993
▁difficult	-10.9931
▁Many	-10.9933
どこ	-10.9937
▁名古屋	-10.9938
ley	-10.9939
動く	-10.994
吹	-10.994
覚え	-10.9942
これからも	-10.9943
▁OF	-10.9945
特殊	-10.9948
ith	-10.9949
本の	-10.9949
だけでは	-10.995
輸送	-10.995
ゆる	-10.995
帰宅	-10.9951
最高の	-10.9951
vector	-10.9953
ag	-10.9955
子は	-10.9955
▁Com	-10.9956
棟	-10.9958
script	-10.9958
なんとなく	-10.9959
お金を	-10.9959
綺麗な	-10.9959
深夜	-10.9959
いると	-10.9961
我慢	-10.9962
サプリ	-10.9962
▁つまり	-10.9962
par	-10.9965
キャンプ	-10.9965
誤	-10.9965
にいる	-10.9965
に乗って	-10.9967
▁quite	-10.9969
大学院	-10.9972
売上	-10.9973
ことができ	-10.9974
sys	-10.9974
入手	-10.9974
荷物	-10.9976
post	-10.9977
上がる	-10.9978
旦那	-10.998
ea	-10.9982
▁getting	-10.9988
という事	-10.9988
歌手	-10.999
▁python	-10.999
教え	-10.9991
闇	-10.9991
!』	-10.9991
This	-10.9991
アドレス	-10.9991
フレ	-10.9992
¥	-10.9993
PV	-10.9995
の後	-10.9999
▁詳しくはこちら	-11
▁comment	-11
ちょっとした	-11.0001
月末	-11.0002
仮	-11.0002
GB	-11.0003
観測	-11.0003
は何ですか	-11.0004
人々	-11.0004
php	-11.0004
できました	-11.0006
▁loop	-11.0007
゚	-11.0007
駅から	-11.0007
整	-11.0007
wa	-11.0008
ach	-11.001
したいと思います	-11.0011
ジム	-11.0011
エントリー	-11.0012
開設	-11.0013
コンビニ	-11.0014
吸収	-11.0015
▁names	-11.0019
程度の	-11.0019
噂	-11.002
加藤	-11.0021
がありますが	-11.0021
▁asked	-11.0021
そんなこと	-11.0023
▁sleep	-11.0024
秘密	-11.0024
▁昨日	-11.0024
▁digit	-11.0025
時間の	-11.0027
容量	-11.0028
思います	-11.0028
頁	-11.0028
meter	-11.0033
興奮	-11.0035
個人的には	-11.0038
▁near	-11.0038
▁やっぱり	-11.0038
時々	-11.0039
の人	-11.0039
羅	-11.0045
使った	-11.0045
";	-11.0048
function	-11.0048
未満	-11.0048
根拠	-11.0049
針	-11.0049
録	-11.005
アラ	-11.005
ペース	-11.0051
連盟	-11.0052
舌	-11.0056
の色	-11.0056
▁Ca	-11.0059
中国の	-11.006
▁America	-11.0062
ダメージ	-11.0063
放置	-11.0063
なくなって	-11.0064
走る	-11.0068
人事	-11.0069
ーズ	-11.0073
水準	-11.0074
意味で	-11.0075
支部	-11.0075
屋根	-11.0075
及	-11.0077
優れた	-11.0077
まん	-11.0079
ヨガ	-11.0086
▁love	-11.0087
晴	-11.0088
保湿	-11.0088
決勝	-11.0091
周年	-11.0092
ud	-11.0092
日発売	-11.0094
▁私	-11.0094
どこに	-11.0095
糖	-11.0096
でない	-11.0097
テル	-11.0097
再度	-11.0101
情報は	-11.0101
ったら	-11.0101
軒	-11.0102
win	-11.0102
月には	-11.0103
ln	-11.0107
,”	-11.0108
部隊	-11.0109
取る	-11.011
週末	-11.0111
ことはない	-11.0111
IO	-11.0112
頂いた	-11.0114
話す	-11.0114
.[	-11.0118
数値	-11.0118
爪	-11.0119
▁countries	-11.012
千葉県	-11.012
プレミアム	-11.012
思って	-11.0121
ハート	-11.0123
になっていた	-11.0125
mark	-11.0125
▁監督	-11.0126
商品を	-11.0127
~!	-11.0128
育児	-11.0128
▁トラックバック	-11.013
】【	-11.0131
▁sometimes	-11.0133
▁parser	-11.0134
▁modern	-11.0135
せっかく	-11.0135
▁slope	-11.0135
棚	-11.0136
qui	-11.0137
+\	-11.0139
詳しくは	-11.0142
scale	-11.0146
おすすめの	-11.0146
いち	-11.0148
上司	-11.015
よー	-11.0154
夜の	-11.0156
設	-11.0157
せない	-11.0157
show	-11.0157
search	-11.0157
細かい	-11.0158
卒	-11.0162
近年	-11.0162
▁art	-11.0163
検出	-11.0163
izing	-11.0166
穂	-11.0171
ハンド	-11.0172
因	-11.0173
成立	-11.0173
構築	-11.0176
中村	-11.0177
see	-11.0177
一回	-11.0178
りと	-11.0179
具合	-11.018
ref	-11.0181
はもう	-11.0181
Test	-11.0182
変わらない	-11.0183
ることができる	-11.0184
栗	-11.0185
▁digits	-11.0187
▁relative	-11.0188
▁degree	-11.0188
ねえ	-11.0188
岳	-11.0194
▁contain	-11.0194
明るい	-11.0194
であるため	-11.0194
hr	-11.0198
イル	-11.0198
削減	-11.0199
指標	-11.02
そうした	-11.0201
▁forces	-11.0203
〇	-11.0204
誰でも	-11.0204
▁Any	-11.0205
欧州	-11.0206
replace	-11.0207
も良い	-11.021
lock	-11.0211
多少	-11.0212
ケイ	-11.0213
詳細は	-11.0217
センス	-11.0217
▁sets	-11.0217
Co	-11.0218
▁effects	-11.0218
include	-11.022
工学	-11.0221
BO	-11.0221
又	-11.0223
▁Sum	-11.0223
体が	-11.0225
▁se	-11.0225
eg	-11.0225
家具	-11.0226
聞いた	-11.0226
もう一度	-11.0226
debug	-11.0227
の方々	-11.0229
▁Other	-11.023
⇒	-11.0232
の増加	-11.0234
欠	-11.0236
▁micro	-11.0238
腸	-11.0238
▁©	-11.0239
コレクション	-11.024
ショート	-11.024
▁jr	-11.0241
TE	-11.0244
だけが	-11.0244
んだろう	-11.0244
長崎	-11.0245
のメンバー	-11.0245
に記載	-11.0248
に対応	-11.0248
声優	-11.0249
月額	-11.0255
のひとつ	-11.0256
▁Pa	-11.0256
施	-11.0257
view	-11.0259
前半	-11.026
選ぶ	-11.0261
ことができました	-11.0261
玄関	-11.0261
cmd	-11.0264
少	-11.0266
待って	-11.0267
寿	-11.0268
銃	-11.0268
下げ	-11.0269
ig	-11.0271
prob	-11.0273
配慮	-11.0273
▁const	-11.0278
メイ	-11.0278
遊んで	-11.0279
ベン	-11.0279
▁Power	-11.028
写真を	-11.028
▁outside	-11.0282
vers	-11.0282
嘘	-11.0284
勝負	-11.0285
よかったです	-11.0286
▁ac	-11.0286
思想	-11.0286
嶋	-11.0286
を図る	-11.0288
▁directly	-11.029
Ｅ	-11.029
▁represent	-11.0291
禁	-11.0292
石川	-11.0293
▁memory	-11.0297
撮り	-11.0297
ものと	-11.0297
▁evidence	-11.0298
ments	-11.0299
フィールド	-11.0301
▁title	-11.0302
円で	-11.0304
なるほど	-11.0306
明るく	-11.0306
著者	-11.0306
組み	-11.0308
▁上	-11.0308
振	-11.0309
▁note	-11.0309
ホー	-11.031
オス	-11.031
じゃあ	-11.0313
経営者	-11.0316
んじゃ	-11.0317
出た	-11.0317
不正	-11.0317
らん	-11.0318
はどう	-11.0318
走行	-11.0321
台風	-11.0321
カウンター	-11.0323
子供たち	-11.0324
MI	-11.0325
日には	-11.0326
▁resistance	-11.0326
免許	-11.0327
本当	-11.0327
▁took	-11.033
ジュニア	-11.0331
次第	-11.0331
決め	-11.0332
insert	-11.0332
肝	-11.0333
マッチ	-11.0333
方法を	-11.0334
あんまり	-11.0334
ミュージック	-11.0337
お腹	-11.0339
の言葉	-11.034
uck	-11.0342
夏休み	-11.0342
使い方	-11.0344
の人物	-11.0344
De	-11.0344
BC	-11.0345
▁experience	-11.0345
ドライバー	-11.0346
データを	-11.0347
の改善	-11.0347
対処	-11.0349
files	-11.0353
▁select	-11.0354
。※	-11.0356
情報が	-11.0356
無線	-11.0358
んでいる	-11.0358
パスワード	-11.0363
！」	-11.0364
お勧め	-11.0364
▁production	-11.0365
SH	-11.0365
臨床	-11.0365
アレルギー	-11.0366
リゾート	-11.0366
テレ	-11.0366
新しく	-11.0366
さい	-11.0367
遅れ	-11.0369
分解	-11.0371
当店	-11.0371
聞く	-11.0373
サプリメント	-11.0378
いける	-11.0378
？」	-11.038
もあって	-11.0381
包	-11.0382
の対象	-11.0387
無事	-11.0389
▁演	-11.0389
ロゴ	-11.0389
▁follow	-11.0391
タクシー	-11.0393
USB	-11.0393
豪	-11.0393
の新	-11.0394
▁et	-11.0395
づけ	-11.0396
lit	-11.0396
▁rules	-11.0397
祐	-11.0398
手の	-11.0398
数が	-11.04
men	-11.04
数学	-11.0406
人もいる	-11.0406
▁becomes	-11.0406
ことはありません	-11.0407
おう	-11.0408
くなる	-11.041
合成	-11.0412
収穫	-11.0413
copy	-11.0415
ドリンク	-11.0416
要件	-11.0417
軽減	-11.0417
▁task	-11.0418
\$	-11.0418
LED	-11.042
杉	-11.042
などと	-11.0422
次元	-11.0422
目で	-11.0422
)$$	-11.0422
入れて	-11.0423
▁web	-11.0425
▁コメント	-11.0427
たま	-11.0427
称	-11.0431
込	-11.0434
貴重な	-11.0435
割合	-11.0436
事前	-11.0437
出席	-11.0438
戦い	-11.0438
プライベート	-11.0438
風邪	-11.0438
TBS	-11.0442
▁divide	-11.0442
のなら	-11.0443
植え	-11.0443
▁character	-11.0444
va	-11.0444
の大きさ	-11.0445
丘	-11.0446
不思議な	-11.0447
すなわち	-11.0449
連合	-11.045
アイス	-11.0456
を作り	-11.0457
▁easily	-11.0457
ぅ	-11.0458
ose	-11.0459
差し	-11.0461
過ごす	-11.0462
将	-11.0463
アイデア	-11.0464
すっかり	-11.0466
わたし	-11.0468
今では	-11.0468
何でも	-11.047
雷	-11.0472
時代に	-11.0472
綿	-11.0474
てしまいました	-11.0475
ランク	-11.0476
▁du	-11.0477
筆者は	-11.0478
とされている	-11.0478
}}{	-11.0479
メル	-11.0479
GA	-11.048
host	-11.0483
▁entire	-11.0483
という話	-11.0483
速報	-11.0483
▁Car	-11.0484
大好き	-11.0485
蓮	-11.0486
ハム	-11.0487
心が	-11.049
▁trying	-11.0492
fit	-11.0493
だけは	-11.0494
ean	-11.0494
seq	-11.0495
芸	-11.0496
を使用して	-11.0497
動か	-11.05
▁最後に	-11.0501
クト	-11.0501
クレ	-11.0502
prefix	-11.0502
OFF	-11.0503
して下さい	-11.0503
砲	-11.0505
cast	-11.0506
ert	-11.0506
▁parameter	-11.0506
没	-11.0506
甘い	-11.0509
じゃなくて	-11.051
ほんと	-11.051
request	-11.0512
エコ	-11.0512
私たちの	-11.0513
タウン	-11.0513
なもの	-11.0513
鶏	-11.0514
▁mathematical	-11.0515
みてください	-11.0516
そのうち	-11.0516
するように	-11.0516
学ぶ	-11.0518
たこと	-11.052
都合	-11.0521
とある	-11.0521
ジャケット	-11.0523
パイ	-11.0524
飾	-11.0524
ks	-11.0524
シャー	-11.0525
滑	-11.0525
は約	-11.0529
Software	-11.053
を始め	-11.0532
付属	-11.0533
ますので	-11.0534
見直し	-11.0535
どうやって	-11.0539
▁video	-11.0541
執行	-11.0541
アップデート	-11.0542
大臣	-11.0544
新設	-11.0545
タオル	-11.0547
したところ	-11.0547
一括	-11.0548
Ⅰ	-11.0548
青年	-11.0549
sort	-11.0551
▁impact	-11.0554
▁ここで	-11.0555
監視	-11.0556
che	-11.0556
ものであり	-11.0558
の高さ	-11.0559
一本	-11.0559
▁comp	-11.056
Set	-11.0561
▁growth	-11.0562
どれ	-11.0563
誕生日	-11.0564
解除	-11.0564
ji	-11.0567
ess	-11.0568
▁display	-11.0568
エー	-11.0568
様式	-11.0568
をしっかり	-11.057
query	-11.057
学校の	-11.0571
自分自身	-11.0572
鶴	-11.0574
施行	-11.0574
オーナー	-11.0575
メモ	-11.0575
pre	-11.0577
原発	-11.058
マネジメント	-11.0581
ニーズ	-11.0582
道を	-11.0582
新人	-11.0583
小型	-11.0583
用途	-11.0583
巣	-11.0583
ulation	-11.0585
一年	-11.0586
銭	-11.0586
eat	-11.0588
明け	-11.0589
▁charge	-11.0591
名は	-11.0592
お客様に	-11.0592
やり方	-11.0593
配合	-11.0593
▁anything	-11.0594
▁bi	-11.0595
首相	-11.0595
^)	-11.0596
嵐	-11.0596
昌	-11.0596
else	-11.0597
▁Because	-11.0598
襲	-11.0599
アフィリエイト	-11.06
再現	-11.0602
時まで	-11.0603
冠	-11.0607
財布	-11.0608
アルコール	-11.0608
)}	-11.061
を引き	-11.061
▁Mi	-11.061
時間に	-11.0614
▁Page	-11.0615
新潟	-11.0616
ッド	-11.0616
ヒト	-11.0619
バッテリー	-11.0619
▁multiply	-11.0619
▁technology	-11.0619
ってしまう	-11.0624
を入れ	-11.0625
彼らは	-11.0625
取って	-11.0625
今年の	-11.0626
ラス	-11.0627
ヴェ	-11.0628
▁ask	-11.0628
セッション	-11.0633
当社の	-11.0635
支え	-11.0635
cls	-11.0636
▁application	-11.0637
支店	-11.0637
cap	-11.0639
珍しい	-11.0641
事業の	-11.0642
帳	-11.0643
xy	-11.0644
センチ	-11.0644
感が	-11.0647
Ｍ	-11.0648
と考えています	-11.0649
世帯	-11.0654
pred	-11.0656
ことになります	-11.0657
社会人	-11.0659
ヶ	-11.0659
定期的に	-11.0659
本来	-11.066
政治家	-11.0663
の紹介	-11.0663
水分	-11.0664
歌詞	-11.0664
微	-11.0665
怒り	-11.0666
ot	-11.0669
▁mi	-11.0671
医療機関	-11.0673
一歩	-11.0674
切って	-11.0675
▁develop	-11.0676
▁計	-11.0677
▁fire	-11.0677
前提	-11.0678
▁sun	-11.0678
▁北	-11.068
静岡県	-11.0681
帰	-11.0682
タブレット	-11.0685
風俗	-11.0687
リード	-11.0688
▁device	-11.0688
風の	-11.0688
者に	-11.0689
ins	-11.069
幅広い	-11.069
重い	-11.069
にしても	-11.0691
▁products	-11.0691
昔の	-11.0691
place	-11.0692
日付	-11.0693
指名	-11.0693
帰る	-11.0696
それほど	-11.0697
次郎	-11.0703
▁directory	-11.0704
を知る	-11.0704
独	-11.0705
従来の	-11.0705
▁edge	-11.0707
講	-11.0707
拡張	-11.0708
研究者	-11.0708
フィルム	-11.071
▁care	-11.0711
高額	-11.0711
▁transform	-11.0715
を持った	-11.0715
ze	-11.0719
父親	-11.0721
と考えられる	-11.0721
終わって	-11.0722
提示	-11.0724
しょう	-11.0725
毛穴	-11.0727
つけて	-11.0731
みましょう	-11.0732
応用	-11.0733
▁seconds	-11.0734
要望	-11.0735
ものに	-11.0739
初め	-11.074
初回	-11.0741
▁clean	-11.0742
のかもしれません	-11.0746
▁長	-11.0747
▁multi	-11.0748
◆	-11.0749
の作成	-11.0749
下記の	-11.0749
アンド	-11.0751
▁images	-11.0751
実際には	-11.0753
紫	-11.0754
勇	-11.0756
許	-11.0759
どちらも	-11.076
さすが	-11.076
熊本	-11.0762
▁integral	-11.0763
だろ	-11.0768
ヒット	-11.0769
オーダー	-11.0769
の皆様	-11.0769
▁minimum	-11.077
ef	-11.077
はじめ	-11.0771
▁obtain	-11.0772
▁それでも	-11.0773
テープ	-11.0773
▁operation	-11.0773
ご協力	-11.0774
▁Calculate	-11.0774
レア	-11.0776
We	-11.0776
▁goes	-11.0777
支払い	-11.0778
と言われています	-11.0779
丈	-11.0781
▁config	-11.0781
消	-11.0782
子供が	-11.0783
間違い	-11.0783
洗い	-11.0785
りました	-11.0786
人形	-11.0786
通勤	-11.0787
バレ	-11.0788
ace	-11.0788
CI	-11.0788
合って	-11.0789
▁music	-11.079
inal	-11.079
と言った	-11.0793
▁avoid	-11.0795
遠く	-11.0795
みよう	-11.0796
に努め	-11.0798
お友達	-11.08
採	-11.0802
east	-11.0805
fc	-11.0808
の販売	-11.0808
沙	-11.0809
pdf	-11.081
▁strong	-11.0811
▁represents	-11.0814
▁National	-11.0815
のイメージ	-11.0815
norm	-11.0816
デー	-11.0817
労働者	-11.0817
敷	-11.082
weight	-11.082
描写	-11.0821
▁Vol	-11.0824
▁今日	-11.0824
山の	-11.0824
カップル	-11.0826
の元	-11.0828
厳	-11.0828
潤	-11.0828
と言い	-11.0829
lon	-11.0829
other	-11.083
▁North	-11.083
▁py	-11.0832
せば	-11.0833
▁started	-11.0835
▁percentage	-11.0836
▁script	-11.0838
是	-11.0838
短期	-11.0838
JA	-11.0838
手紙	-11.0839
だい	-11.0839
も多い	-11.0841
③	-11.0844
効果がある	-11.0844
翔	-11.0844
▁exists	-11.0845
は本当に	-11.0846
タイヤ	-11.0849
itch	-11.0849
▁via	-11.0849
証明書	-11.085
▁fractions	-11.085
の家	-11.085
デバイス	-11.0851
残念ながら	-11.0853
キャンセル	-11.0855
きり	-11.0856
▁pay	-11.0857
晴れ	-11.0858
クラウド	-11.0858
▁His	-11.086
▁members	-11.0861
一切	-11.0862
背中	-11.0862
サンプル	-11.0862
帝	-11.0865
は全く	-11.0866
いいですね	-11.0868
を務めた	-11.087
▁economic	-11.0871
dist	-11.0878
岡山	-11.088
AM	-11.0881
ありますが	-11.0883
主体	-11.0883
sha	-11.0884
▁Ne	-11.0886
本当は	-11.0888
テクニック	-11.0889
普及	-11.0893
を行って	-11.0894
購入した	-11.0895
▁Image	-11.0895
?)	-11.09
ということを	-11.0902
去年	-11.0904
シミ	-11.0904
nt	-11.0906
が大きい	-11.0908
開き	-11.0909
が非常に	-11.0913
内容を	-11.0914
飽き	-11.0916
も同じ	-11.0916
▁楽	-11.0918
を探し	-11.0918
臨	-11.092
β	-11.0924
憲	-11.0924
EM	-11.0928
ヴァン	-11.0928
style	-11.0928
欄	-11.0928
植	-11.0929
ゲー	-11.0929
▁Add	-11.0929
utils	-11.0934
▁Ver	-11.0934
air	-11.0934
cur	-11.0936
問い合わせ	-11.094
日公開	-11.0941
▁cat	-11.0941
鳴	-11.0943
▁issue	-11.0943
▁URL	-11.0943
してくれます	-11.0945
多数	-11.0951
CT	-11.0952
▁running	-11.0953
上がって	-11.0955
歯科	-11.0959
わり	-11.0959
遺	-11.0961
dr	-11.0961
の有無	-11.0962
たとえば	-11.0962
}_{	-11.0964
▁option	-11.0964
踏み	-11.0967
布団	-11.0968
property	-11.0969
▁occur	-11.0969
を発表	-11.097
の場	-11.0973
▁independent	-11.0974
側に	-11.0975
戦後	-11.0978
くり	-11.0979
▁service	-11.0981
を始めた	-11.0981
acc	-11.0982
▁answers	-11.0982
返信	-11.0984
SIM	-11.0984
´	-11.0984
FA	-11.0984
▁resources	-11.0984
▁false	-11.0986
カ月	-11.0986
資本	-11.0989
labels	-11.099
▁theorem	-11.0993
引退	-11.0993
録音	-11.0994
してもらう	-11.0995
フィー	-11.0997
トレ	-11.1
命令	-11.1
PO	-11.1001
▁app	-11.1003
やめ	-11.1003
oke	-11.1003
が存在する	-11.1004
当初	-11.1004
過ぎて	-11.1004
center	-11.1004
▁Ho	-11.1006
けっこう	-11.1008
学院	-11.101
血液	-11.1013
ヨン	-11.1014
グレー	-11.1014
自らの	-11.1016
分かって	-11.1018
婚活	-11.1018
▁fast	-11.1019
▁developed	-11.102
との関係	-11.1021
わずか	-11.1023
率は	-11.1024
タル	-11.1025
グローバル	-11.1025
ニング	-11.1025
▁South	-11.1026
送り	-11.1026
激しい	-11.1028
応	-11.1029
かない	-11.1029
親子	-11.1031
もあるので	-11.1031
思	-11.1032
織	-11.1033
height	-11.1035
と思ったら	-11.1036
ポリ	-11.1036
▁この文章の中で	-11.1043
チャット	-11.1043
が必要な	-11.1043
の時	-11.1047
▁layer	-11.1047
▁report	-11.1047
復帰	-11.1048
をもとに	-11.1048
並びに	-11.1049
こども	-11.1051
チャー	-11.1052
敬	-11.1052
だけです	-11.1053
her	-11.1057
僕が	-11.106
某	-11.1062
ack	-11.1064
価格は	-11.1065
リフォーム	-11.1065
ホン	-11.1065
era	-11.1066
素敵	-11.1066
ient	-11.1066
ender	-11.1067
こういった	-11.1067
言うと	-11.1068
CE	-11.1069
▁travel	-11.1071
▁fish	-11.1071
case	-11.1073
▁assume	-11.1074
こうして	-11.1074
infty	-11.1074
オリ	-11.1075
▁高	-11.1076
快	-11.1076
アクセサリー	-11.1077
ゴー	-11.1081
ミルク	-11.1081
▁signal	-11.1081
照明	-11.1082
▁tests	-11.1083
}(	-11.1084
時間帯	-11.1084
▁blue	-11.1085
をチェック	-11.1088
投げ	-11.1089
飛行機	-11.1089
出てくる	-11.1089
があること	-11.109
相互	-11.1091
同意	-11.1094
いたり	-11.1101
塗装	-11.1101
クール	-11.1101
を守る	-11.1101
向かい	-11.1103
フラ	-11.1104
ここは	-11.1105
していると	-11.1107
▁"\	-11.1108
▁Hi	-11.111
assert	-11.1112
◎	-11.1112
女性は	-11.1113
以外に	-11.1113
▁starting	-11.1114
cal	-11.1114
事で	-11.1114
比率	-11.1117
しておく	-11.1118
無視	-11.1119
作品を	-11.112
証券	-11.112
染	-11.1121
方がいい	-11.1123
}=	-11.1124
大人の	-11.1124
フェア	-11.1124
これにより	-11.1125
オレンジ	-11.1128
手帳	-11.1129
便秘	-11.1132
ヴァー	-11.1133
性の	-11.1134
知っている	-11.1134
他人	-11.1141
使っている	-11.1141
っぱ	-11.1142
左右	-11.1143
▁forms	-11.1144
十分な	-11.1145
言葉を	-11.1146
どれだけ	-11.1147
RC	-11.1147
世間	-11.1148
arch	-11.1151
スタン	-11.1152
クーポン	-11.1152
イヤ	-11.1152
ev	-11.1152
ブース	-11.1153
ってる	-11.1154
match	-11.1155
事に	-11.1155
くれました	-11.1156
▁vs	-11.1157
▁↑	-11.1159
を食べ	-11.1159
▁allows	-11.1161
降	-11.1165
てきました	-11.1167
▁Ad	-11.1169
▁training	-11.1169
情報の	-11.1169
press	-11.1171
のみで	-11.1171
抗	-11.1172
郵便局	-11.1174
援助	-11.1175
pop	-11.1176
▁Ba	-11.1178
が多かった	-11.1181
ゆく	-11.1183
のではなく	-11.1184
黒い	-11.1187
)"	-11.1187
並んで	-11.1187
方法で	-11.1187
コンセプト	-11.1189
エアコン	-11.1189
エンド	-11.1191
敏	-11.1193
プチ	-11.1194
押	-11.1196
このまま	-11.1198
od	-11.1198
個性	-11.1199
定員	-11.1199
▁returns	-11.1201
在宅	-11.1202
ジャンプ	-11.1202
先行	-11.1203
するので	-11.1203
なんでも	-11.1204
句	-11.1208
銀座	-11.1208
ラグビー	-11.1211
▁room	-11.1211
▁generally	-11.1211
コア	-11.1211
なくなり	-11.1211
方を	-11.1213
▁北海道	-11.1213
めて	-11.1215
年収	-11.1215
als	-11.1216
の目的	-11.1217
どうやら	-11.1218
選考	-11.1218
走って	-11.1219
所有	-11.1219
mask	-11.122
▁extra	-11.1221
ALL	-11.1228
考	-11.123
▁El	-11.1231
src	-11.1232
なさい	-11.1232
ですけど	-11.1232
LOG	-11.1233
シール	-11.1234
dot	-11.1235
なのは	-11.1239
閉	-11.1239
▁それから	-11.1239
泡	-11.124
mathbb	-11.1242
スマート	-11.1243
▁binary	-11.1244
cell	-11.1249
system	-11.1249
▁house	-11.125
モニター	-11.1251
▁CO	-11.1253
中です	-11.1253
所在地	-11.1253
stone	-11.1256
利用する	-11.1256
sec	-11.1257
mit	-11.1258
しょ	-11.1259
oy	-11.126
給料	-11.126
を購入	-11.1261
医薬品	-11.1262
rt	-11.1262
暑い	-11.1263
たびに	-11.1267
意図	-11.1269
頻繁に	-11.127
お得な	-11.1271
ぼく	-11.1271
に来た	-11.1272
▁auto	-11.1273
pic	-11.1273
▁logging	-11.1275
くれて	-11.1276
固	-11.1278
基本的な	-11.1279
つもり	-11.1282
▁York	-11.1282
教材	-11.1282
山本	-11.1283
をご紹介します	-11.1283
の中では	-11.1284
▁job	-11.1285
を入れる	-11.1285
であって	-11.1287
具体的に	-11.1287
save	-11.1287
▁conversion	-11.129
ますよ	-11.1293
ok	-11.13
EE	-11.1303
下り	-11.1304
med	-11.1304
アフリカ	-11.1305
now	-11.1305
quad	-11.1306
▁building	-11.1307
たが	-11.1308
充実	-11.1308
tin	-11.131
Ｉ	-11.1312
ナビ	-11.1315
いで	-11.1316
の商品	-11.1317
応え	-11.1317
total	-11.1318
ログ	-11.1319
痛い	-11.1319
パル	-11.1319
sa	-11.1321
ob	-11.1322
ius	-11.1323
ストア	-11.1324
物の	-11.1324
ようになり	-11.1324
自宅で	-11.1324
渡辺	-11.1326
ブラウザ	-11.1329
▁months	-11.133
安全性	-11.1331
タワー	-11.1331
損害	-11.1331
ウェア	-11.1332
基地	-11.1332
▁society	-11.1333
▁containing	-11.1334
るのか	-11.1334
に登録	-11.1336
▁location	-11.1338
▁Thanks	-11.1338
賢	-11.1338
入る	-11.1339
ことによって	-11.1339
abs	-11.134
ローズ	-11.1341
←	-11.1341
▁miles	-11.1341
仕事の	-11.1343
mode	-11.1344
店の	-11.1345
▁Hence	-11.1349
▁自分の	-11.1351
案件	-11.1357
残念	-11.1358
とお	-11.1358
等に	-11.1359
コラボ	-11.136
~」	-11.136
気持ちが	-11.136
教えてください	-11.1361
もよく	-11.1361
最後	-11.1361
▁ever	-11.1365
▁respect	-11.1365
が登場	-11.1366
???	-11.1366
以	-11.1367
導	-11.1367
が良く	-11.1368
考察	-11.1369
続け	-11.137
製の	-11.1372
専用の	-11.1375
峰	-11.1376
復興	-11.1377
▁Create	-11.1379
ense	-11.1379
恐怖	-11.1381
▁named	-11.1381
水道	-11.1382
hu	-11.1383
憲法	-11.1386
▁Sp	-11.1386
別途	-11.1387
うどん	-11.1387
爆発	-11.1388
の位置	-11.1388
手続	-11.1389
債務	-11.1389
()	-11.1389
dic	-11.139
必須	-11.139
日本に	-11.1393
実力	-11.1393
神様	-11.1394
を与え	-11.1394
ami	-11.1394
稼ぐ	-11.1396
緩和	-11.1398
▁fun	-11.1399
▁prove	-11.1399
▁inches	-11.1401
lect	-11.1406
ネイル	-11.1406
client	-11.1409
▁machine	-11.1411
'))	-11.1411
freq	-11.1411
解散	-11.1413
少々	-11.1414
発達	-11.1414
隣	-11.1415
体育	-11.1415
重量	-11.1416
プリント	-11.1421
場合に	-11.1421
▁»	-11.1423
▁odd	-11.1423
テンション	-11.1424
デル	-11.1425
泰	-11.1425
というような	-11.1426
▁bottom	-11.1426
マニュアル	-11.1428
暗	-11.1429
学術	-11.143
の開催	-11.143
涼	-11.1434
てしまい	-11.1434
ng	-11.1436
▁deal	-11.1437
与	-11.1438
愛知県	-11.1439
フレーム	-11.1441
▁col	-11.1441
▁スポンサーサイト	-11.1442
体操	-11.1443
大学生	-11.1445
変わった	-11.1448
させること	-11.145
削	-11.145
かなぁ	-11.145
▁sound	-11.1452
缶	-11.1453
▁Pi	-11.1455
▁plants	-11.1455
に関わる	-11.1456
着物	-11.1457
▁Total	-11.1457
景	-11.1457
rad	-11.1458
私には	-11.146
売上高	-11.146
うる	-11.146
マーケット	-11.1461
▁online	-11.1461
に移	-11.1464
ぴ	-11.1465
をご紹介	-11.1465
過ぎる	-11.1468
μ	-11.147
点検	-11.147
社内	-11.1472
にあたる	-11.1472
強制	-11.1473
を始める	-11.1473
アダルト	-11.1473
Ｎ	-11.1474
キット	-11.1476
勇気	-11.1477
助け	-11.1482
倒	-11.1483
しますが	-11.1483
須	-11.1484
の力	-11.1484
▁朝	-11.1486
奏	-11.149
▁̄	-11.149
牛乳	-11.1492
)|	-11.1492
di	-11.1492
私に	-11.1496
▁trans	-11.1497
▁]];	-11.1498
の確認	-11.1499
豊富な	-11.1501
持っている	-11.1501
ボリューム	-11.1502
の感想	-11.1505
▁Write	-11.1508
接触	-11.1509
浮気	-11.151
大分	-11.151
感染症	-11.1512
特性	-11.1512
決まり	-11.1513
問題は	-11.1513
扉	-11.1514
▁features	-11.1514
▁operations	-11.1516
▁para	-11.1517
上限	-11.1518
ポップ	-11.1521
便利です	-11.1524
▁picture	-11.1525
とします	-11.1526
SF	-11.1526
楽しみです	-11.1529
▁regular	-11.1529
トレンド	-11.153
王国	-11.1531
狙い	-11.1533
KO	-11.1534
担	-11.1535
▁Dec	-11.1536
ae	-11.1536
ダム	-11.1536
▁Ka	-11.1537
々と	-11.1537
象	-11.1538
▁specified	-11.1539
％）	-11.1539
tf	-11.1542
回の	-11.1542
Pa	-11.1542
▁middle	-11.1544
時刻	-11.1544
▁counter	-11.1545
巡	-11.1547
属性	-11.1549
%)	-11.1549
email	-11.1554
いただきます	-11.1554
▁stress	-11.1557
ram	-11.1558
チョコレート	-11.1559
ソング	-11.1562
PRO	-11.1562
▁compute	-11.1563
rel	-11.1563
リラックス	-11.1567
子どもたち	-11.1572
コミ	-11.1572
海岸	-11.1573
オート	-11.1574
社会的	-11.1575
▁culture	-11.1576
の推進	-11.1577
得意	-11.1578
ABC	-11.1579
▁built	-11.158
▁request	-11.1582
▁Commented	-11.1582
▁Day	-11.1582
▁wrote	-11.1583
▁please	-11.1583
▁nothing	-11.1585
告白	-11.1587
たいと思います	-11.1587
▁straight	-11.1587
民族	-11.1588
shop	-11.1588
▁density	-11.1589
store	-11.159
▁cur	-11.159
年前	-11.1591
突き	-11.1596
▁hour	-11.1598
デザイナー	-11.1599
上げる	-11.1602
様の	-11.1603
インテリア	-11.1604
夕	-11.1605
▁models	-11.1607
と比べて	-11.1607
といいます	-11.161
にあり	-11.1611
▁fall	-11.1612
鑑賞	-11.1612
常識	-11.1613
場所は	-11.1617
真実	-11.1617
保有	-11.1619
といい	-11.162
▁living	-11.162
を高め	-11.1621
眺め	-11.1622
研究会	-11.1623
の中の	-11.1625
保険料	-11.1625
人類	-11.1626
ブラジル	-11.1628
綺麗に	-11.163
▁send	-11.163
END	-11.1631
の差	-11.1631
を書く	-11.1632
方々	-11.1633
けて	-11.1635
~♪	-11.164
店内	-11.164
際には	-11.1643
選定	-11.1643
やっている	-11.1646
次は	-11.1646
駆け	-11.165
翼	-11.1651
楽しむ	-11.1652
となると	-11.1653
▁provides	-11.1656
春の	-11.1656
uni	-11.166
ンズ	-11.1661
河川	-11.1662
競馬	-11.1662
ごく	-11.1663
商品は	-11.1664
fl	-11.1665
ft	-11.1665
long	-11.1665
色んな	-11.1666
中出し	-11.1669
現役	-11.1673
お土産	-11.1673
▁pick	-11.1674
▁ValueError	-11.1676
下に	-11.1676
回目の	-11.1678
最初から	-11.1682
ひろ	-11.1684
ことなく	-11.1686
キュ	-11.1688
稼げる	-11.1688
▁increased	-11.1688
▁enter	-11.1689
生涯	-11.169
もらい	-11.1692
▁applied	-11.1694
();	-11.1696
tu	-11.1696
長年	-11.1697
ウン	-11.1697
ネス	-11.1702
: 	-11.1702
▁symbol	-11.1704
フォン	-11.1706
会社に	-11.1706
施設の	-11.1709
そうですが	-11.1712
かね	-11.1712
田舎	-11.1712
代の	-11.1714
蓋	-11.1715
正解	-11.1716
利用できる	-11.1716
経緯	-11.1717
ご予約	-11.1722
first	-11.1724
自身が	-11.1725
▁vertical	-11.1726
らしいです	-11.1726
カナダ	-11.1727
CL	-11.1727
泣き	-11.173
まとめて	-11.1732
ができます	-11.1732
▁Rights	-11.1732
▁moment	-11.1732
患者さん	-11.1733
したので	-11.1733
以外にも	-11.1733
当選	-11.1733
▁drop	-11.1734
can	-11.1734
▁この広告は	-11.1736
▁pounds	-11.1736
秘	-11.1737
フジテレビ	-11.1738
しかしながら	-11.174
いかに	-11.1741
▁track	-11.1742
引越し	-11.1743
の娘	-11.1743
cing	-11.1744
審	-11.1744
▁System	-11.1745
飾り	-11.1745
一定の	-11.1747
グルメ	-11.1748
それとも	-11.1748
IV	-11.1749
執筆	-11.1749
▁performance	-11.175
vis	-11.175
件数	-11.175
あら	-11.1751
するような	-11.1751
▁モンクレール	-11.1753
FM	-11.1754
ことが出来る	-11.1754
進め	-11.1754
▁Last	-11.1755
臨時	-11.1755
カテゴリー	-11.1757
ハル	-11.1759
normal	-11.176
使用する	-11.1762
CK	-11.1763
仕事が	-11.1763
サラ	-11.1763
買	-11.1766
▁choice	-11.1766
セイ	-11.177
締め	-11.177
このブログ	-11.1773
風呂	-11.1773
del	-11.1773
無く	-11.1773
▁Posts	-11.1774
▁ones	-11.1775
▁cv	-11.1776
ハワイ	-11.1777
▁port	-11.1778
ボク	-11.1779
変な	-11.178
たる	-11.1781
そうですね	-11.1785
第三者	-11.1786
開放	-11.1787
pixel	-11.1787
RS	-11.1788
________________	-11.1789
ええ	-11.1791
飛行	-11.1792
kin	-11.1792
総額	-11.1793
輸出	-11.1793
▁メンズ	-11.1797
行け	-11.1797
おく	-11.1798
当初は	-11.1801
関節	-11.1804
▁この記事	-11.1804
とおり	-11.1804
▁additional	-11.1808
やりたい	-11.1809
har	-11.181
記者	-11.181
は無い	-11.1815
▁basis	-11.1816
宮崎	-11.1816
の形	-11.1817
lic	-11.1817
メンテナンス	-11.1819
ONE	-11.1819
コツ	-11.1819
▁success	-11.182
の時に	-11.1823
▁didn	-11.1823
▁photo	-11.1827
お届け	-11.1827
▁feature	-11.1827
マラソン	-11.1827
英国	-11.1828
サイトで	-11.1828
実感	-11.1829
ればいい	-11.183
遺伝子	-11.183
らせて	-11.1831
部位	-11.1832
りん	-11.1833
yl	-11.1833
彼らの	-11.1834
部分が	-11.1834
char	-11.1834
▁Bar	-11.1835
フルーツ	-11.1836
ped	-11.1836
頻度	-11.184
▁ch	-11.1841
ならではの	-11.1843
藩	-11.1845
▁白	-11.1846
の良さ	-11.1846
位の	-11.1846
人工	-11.1847
ey	-11.1849
話は	-11.185
VR	-11.1851
日時	-11.1852
美しく	-11.1852
の通り	-11.1852
うた	-11.1853
滅	-11.1854
ご案内	-11.1855
lastname	-11.1857
金曜日	-11.1857
е	-11.1858
覚	-11.1859
を読む	-11.186
レギュラー	-11.1861
▁acceleration	-11.1861
▁options	-11.1863
刺	-11.1864
寄	-11.1864
要請	-11.1865
インター	-11.1865
得る	-11.1867
有り	-11.1867
しろ	-11.1867
▁Algebra	-11.1868
相変わらず	-11.1869
▁direct	-11.187
演技	-11.1872
受信	-11.1873
刑事	-11.1873
先生が	-11.1874
KA	-11.1874
IM	-11.1875
革命	-11.1878
頂き	-11.1878
▁company	-11.188
▁status	-11.1883
▁opposite	-11.1886
▁Gu	-11.1888
止	-11.1888
cs	-11.189
誘導	-11.1894
ek	-11.1894
bl	-11.1895
居住	-11.1895
▁ability	-11.1898
ネコ	-11.1899
с	-11.1901
▁《	-11.1902
長さ	-11.1902
さくら	-11.1903
▁young	-11.1903
which	-11.1905
濃い	-11.1907
▁appear	-11.1909
▁appropriate	-11.1909
のもと	-11.191
行っている	-11.1911
朝の	-11.1911
?!	-11.1914
スキンケア	-11.1915
創業	-11.1915
皿	-11.1915
▁software	-11.1916
お弁当	-11.1916
▁document	-11.1916
チュ	-11.1917
時半	-11.1917
▁oil	-11.1918
どれも	-11.1918
ポスター	-11.1919
KI	-11.1919
ons	-11.192
ショック	-11.1921
CP	-11.1922
▁phase	-11.1924
つける	-11.1924
を得	-11.1925
年まで	-11.1926
▁month	-11.1929
Array	-11.193
ゴム	-11.193
▁grow	-11.193
▁⑤	-11.1932
だね	-11.1935
交際	-11.1937
DF	-11.1938
VI	-11.1939
▁Bo	-11.194
周囲	-11.194
▁forward	-11.194
攻め	-11.1942
gr	-11.1942
▁hope	-11.1942
付いて	-11.1943
その中で	-11.1944
▁requires	-11.1944
---------------	-11.1944
▁質問	-11.1945
芸能人	-11.1947
かに	-11.1947
▁require	-11.1948
キャッシュ	-11.1949
っちゃ	-11.1949
冷え	-11.195
><	-11.195
検定	-11.1951
こちらは	-11.1952
法令	-11.1952
ビッグ	-11.1953
協	-11.1953
彼女が	-11.1954
だいたい	-11.1955
談	-11.1956
芝	-11.1957
▁π	-11.1959
equal	-11.1959
はどのような	-11.196
▁Google	-11.1961
をかけて	-11.1961
▁東京都	-11.1962
rc	-11.1968
分子	-11.1969
もありますが	-11.1969
同一	-11.1969
≫	-11.197
▁grid	-11.1971
▁beginning	-11.1971
aka	-11.1972
既	-11.1973
名を	-11.1974
眠	-11.1974
▁他	-11.1974
のんびり	-11.1975
▁produced	-11.1976
彼ら	-11.1977
洗濯	-11.1978
副作用	-11.1979
メンズ	-11.1981
を考えて	-11.1983
否定	-11.1987
chan	-11.199
ward	-11.1992
▁calculator	-11.1992
年没	-11.1994
が出来る	-11.1996
Index	-11.1996
がいっぱい	-11.1997
起動	-11.1998
という言葉	-11.1998
コイン	-11.2001
リップ	-11.2001
PT	-11.2002
▁vectors	-11.2006
てくれた	-11.2006
vent	-11.2008
取組	-11.2008
down	-11.2009
生活を	-11.2009
をつける	-11.2011
▁Log	-11.2012
д	-11.2013
cent	-11.2014
▁places	-11.2014
それまで	-11.2015
ちゃった	-11.2017
▁round	-11.2017
▁tend	-11.202
に戻る	-11.2021
rus	-11.2024
利息	-11.2027
いただいて	-11.2027
らせ	-11.2031
お話し	-11.2031
の生活	-11.2031
感じで	-11.2032
RT	-11.2034
こだわり	-11.2036
ディング	-11.2038
旗	-11.2039
＆	-11.2039
を使用する	-11.2039
同じく	-11.2041
られています	-11.2041
▁screen	-11.2041
作者	-11.2042
▁Ga	-11.2042
今も	-11.2042
={	-11.2043
一枚	-11.2043
ake	-11.2046
本作	-11.2046
唯一の	-11.2046
美味しく	-11.2047
最後は	-11.2047
▁multiplication	-11.2047
▁std	-11.2048
学年	-11.2049
を利用した	-11.205
衛生	-11.2051
▁yield	-11.2052
被害者	-11.2052
▁bad	-11.2052
vert	-11.2052
自社	-11.2056
これに	-11.2056
一言	-11.2058
湾	-11.2059
手で	-11.2059
グラス	-11.2064
pad	-11.2067
fn	-11.2068
qua	-11.2069
コト	-11.2069
くださいね	-11.2069
チャート	-11.2069
サイトの	-11.207
▁{\	-11.2071
▁remember	-11.2071
してくる	-11.2072
▁datetime	-11.2074
帰って	-11.2074
あるので	-11.2075
化する	-11.2075
責任者	-11.2076
vo	-11.2076
弊社	-11.2077
あげる	-11.2077
仕方ない	-11.2077
Un	-11.2077
タレント	-11.2078
だとか	-11.2078
に挑戦	-11.2079
▁rock	-11.2079
▁corresponding	-11.2079
gh	-11.208
の人気	-11.2081
lf	-11.2081
を迎え	-11.2081
▁Work	-11.2082
お昼	-11.2082
優しく	-11.2083
▁Sub	-11.2084
同時	-11.2085
▁described	-11.2086
を行うこと	-11.2087
スパ	-11.2089
▁component	-11.209
やがて	-11.2092
ご連絡	-11.2092
返し	-11.2092
▁Mon	-11.2094
お休み	-11.2096
入札	-11.2096
分離	-11.2101
▁began	-11.2101
今から	-11.2102
していますが	-11.2104
景色	-11.2105
最近では	-11.2105
初代	-11.2106
▁player	-11.2109
解放	-11.2109
グラフ	-11.2114
▁本当に	-11.2114
さんから	-11.2115
燃料	-11.2116
当て	-11.2116
通貨	-11.2117
改良	-11.2119
メールで	-11.2119
ゴン	-11.2122
マット	-11.2123
家事	-11.2123
CF	-11.2123
味噌	-11.2124
心地	-11.2129
LAN	-11.2129
car	-11.213
実家	-11.213
過去に	-11.2132
▁describe	-11.2132
転換	-11.2133
ワー	-11.2133
ビーチ	-11.2135
="${	-11.2136
▁proof	-11.2136
Field	-11.2138
人権	-11.2138
再開	-11.2138
の女性	-11.2141
偶然	-11.2142
お気軽に	-11.2143
バリ	-11.2143
漢	-11.2145
組み合わせ	-11.2145
条の	-11.2146
ther	-11.2146
続いて	-11.2146
▁State	-11.2148
くなった	-11.2149
ことだ	-11.2151
とのことです	-11.2151
bot	-11.2151
シェ	-11.2153
SU	-11.2154
のとおり	-11.2155
IA	-11.2155
(?)	-11.2157
と言っても	-11.2158
ちょ	-11.2158
non	-11.2161
緩	-11.2162
▁Even	-11.2163
の準備	-11.2163
今でも	-11.2164
ていきます	-11.2164
になったら	-11.2165
Path	-11.2167
仲良く	-11.2167
推薦	-11.2168
対戦	-11.2168
を参照	-11.217
▁front	-11.2175
木村	-11.2176
最近の	-11.2176
本日	-11.2177
ワード	-11.2177
理事長	-11.2179
たのは	-11.2179
戦で	-11.2179
生きて	-11.2179
▁----------	-11.2179
lower	-11.2181
体験談	-11.2184
黄色	-11.2184
遅く	-11.2184
年度の	-11.2186
変え	-11.2187
▁Roman	-11.2187
われ	-11.2189
と言われ	-11.2191
昇	-11.2191
マナー	-11.2191
stack	-11.2192
▁それ	-11.2194
▁ten	-11.2196
ou	-11.2197
従来	-11.2199
日より	-11.22
着用	-11.2201
寛	-11.2202
軍事	-11.2202
▁rectangle	-11.2203
制定	-11.2206
It	-11.2206
かというと	-11.2207
▁denominator	-11.2207
ようですが	-11.2207
滞在	-11.2208
めっちゃ	-11.2208
入場	-11.2209
上映	-11.221
▁store	-11.221
を確認	-11.2211
終わった	-11.2212
を選んで	-11.2213
行きたい	-11.2213
の可能性	-11.2213
弥	-11.2215
いじめ	-11.2218
賃貸	-11.222
表紙	-11.2221
newcommand	-11.2221
ターン	-11.2221
置いて	-11.2224
あくまで	-11.2225
コル	-11.2225
plus	-11.2226
▁dataset	-11.2228
雑貨	-11.2229
▁Please	-11.223
{{	-11.2232
ミッション	-11.2233
バッ	-11.2233
▁host	-11.2235
の前	-11.2235
▁Table	-11.2235
譲渡	-11.2236
日現在	-11.2237
▁components	-11.2237
始	-11.2237
高め	-11.2237
▁movement	-11.2237
上記の	-11.2238
サル	-11.224
つぶ	-11.224
ウル	-11.2241
aries	-11.2241
だれ	-11.2242
節約	-11.2243
自分も	-11.2244
沖	-11.2246
わざわざ	-11.2246
ございます	-11.2246
自体は	-11.2247
の姿	-11.2248
ビュー	-11.2249
否	-11.2249
▁largest	-11.225
あー	-11.225
崩壊	-11.225
なさ	-11.2252
熊	-11.2253
もありません	-11.2254
尊	-11.2256
デッキ	-11.2257
込め	-11.2257
results	-11.2259
ドライ	-11.2259
ライター	-11.226
ENT	-11.2262
の本	-11.2263
相性	-11.2265
をつけ	-11.2266
▁skin	-11.2267
の仕方	-11.2267
続きを読む	-11.2268
Object	-11.2269
分布	-11.2269
フォト	-11.2272
ができない	-11.2273
▁client	-11.2282
古代	-11.2284
合意	-11.2287
▁define	-11.2288
わかります	-11.2288
線の	-11.2289
測	-11.229
の充実	-11.229
du	-11.2291
商業	-11.2293
カウンセリング	-11.2293
南部	-11.2297
▁win	-11.2299
在籍	-11.23
みます	-11.2301
海軍	-11.2302
金融機関	-11.2304
サイクル	-11.2304
予	-11.2307
ついた	-11.2307
悪く	-11.2307
せた	-11.2307
みたら	-11.2309
ポスト	-11.2309
冬の	-11.231
環	-11.2312
寝て	-11.2312
以前は	-11.2312
python	-11.2316
▁Although	-11.2316
痩せ	-11.2317
▁coordinates	-11.2317
出荷	-11.2318
国道	-11.2321
理想	-11.2323
離れた	-11.2323
結び	-11.2324
▁{'	-11.2324
ging	-11.2325
▁popular	-11.2325
uri	-11.2331
単に	-11.2331
配当	-11.2331
Pro	-11.2331
ネル	-11.2332
▁isn	-11.2332
▁situation	-11.2333
をしています	-11.2335
作詞	-11.2336
ミル	-11.2338
夕食	-11.2338
▁Make	-11.2341
られました	-11.2342
▁piece	-11.2342
スイーツ	-11.2342
▁|---|	-11.2343
remove	-11.2345
委	-11.2345
みな	-11.2346
るため	-11.2347
▁OR	-11.2348
emb	-11.2349
serv	-11.2349
突	-11.2351
}+	-11.2353
しまって	-11.2353
の基礎	-11.2354
)*	-11.2354
イカ	-11.2354
立つ	-11.2355
が行われ	-11.2356
相手が	-11.2358
房	-11.236
最初	-11.236
に関する情報	-11.236
ゲット	-11.2361
ブックライブ	-11.2361
ドラゴン	-11.2362
ser	-11.2363
▁perform	-11.2363
湿	-11.2364
を発見	-11.2366
狭い	-11.2366
ざる	-11.2368
サウンド	-11.2369
冷蔵庫	-11.2369
▁School	-11.2369
保持	-11.2369
気味	-11.2373
反省	-11.2374
人が多い	-11.2376
恐れ	-11.2377
誰が	-11.2378
try	-11.238
>&	-11.2381
指導者	-11.2385
洗浄	-11.2387
▁British	-11.2387
round	-11.2388
修了	-11.2391
と言える	-11.2391
スカート	-11.2392
が好きな	-11.2393
ティック	-11.2395
単語	-11.2397
卓	-11.2397
お客さま	-11.24
長野県	-11.2401
を進め	-11.2402
OUT	-11.2403
混	-11.2403
▁domain	-11.2405
女性に	-11.2405
○○	-11.2408
かなりの	-11.2408
トレード	-11.241
▁経歴	-11.2411
関数	-11.2411
QR	-11.2411
▁contact	-11.2412
ディア	-11.2412
ということが	-11.2412
▁plan	-11.2412
じゃん	-11.2413
規格	-11.2414
刻	-11.2414
伊勢	-11.2414
▁act	-11.2414
吾	-11.2416
試み	-11.2417
モリ	-11.2418
供	-11.2418
▁horizontal	-11.2418
ブラウン	-11.2419
▁arguments	-11.242
裁判所	-11.242
ビジョン	-11.2421
持続	-11.2421
ノウハウ	-11.2422
無事に	-11.2425
悠	-11.2426
▁定	-11.2428
DJ	-11.243
▁Graph	-11.243
酢	-11.2431
強調	-11.2431
度の	-11.2432
頭皮	-11.2432
］	-11.2436
▁県	-11.2436
/*	-11.2437
年末	-11.2438
硬	-11.2439
畳	-11.244
最終的に	-11.2441
▁materials	-11.2442
▁finding	-11.2442
ゲル	-11.2443
お店の	-11.2446
ワークショップ	-11.2446
合併	-11.2446
今度	-11.2446
後で	-11.2446
▁seem	-11.2446
=-	-11.2447
宅	-11.2447
癖	-11.2447
チェーン	-11.2448
▁fields	-11.2449
tro	-11.2451
自主	-11.2451
eval	-11.2454
の子	-11.2457
ますます	-11.2457
▁focus	-11.2461
迎え	-11.2462
半年	-11.2463
gamma	-11.2463
色が	-11.2464
計上	-11.2465
当たる	-11.2466
死ぬ	-11.2467
捕	-11.2469
▁rational	-11.2471
おもちゃ	-11.2471
どちら	-11.2472
が出た	-11.2473
▁Ha	-11.2473
駒	-11.2473
ることが	-11.2473
▁作詞	-11.2474
ker	-11.2475
Con	-11.2476
一般的に	-11.2476
だいぶ	-11.2478
√	-11.248
▁thinking	-11.2483
ところは	-11.2483
を目指して	-11.2484
の導入	-11.2484
▁passed	-11.2488
観客	-11.2489
マウス	-11.2491
ラク	-11.2491
るもの	-11.2491
home	-11.2493
▁ブランド	-11.2494
男の	-11.2494
rating	-11.2495
▁record	-11.2497
取扱	-11.2497
▁items	-11.2498
十分に	-11.2499
違反	-11.25
EP	-11.25
を求めて	-11.2502
直し	-11.2503
全般	-11.2503
と同	-11.2505
ベトナム	-11.2507
区域	-11.2507
管理人	-11.2507
tax	-11.2507
▁review	-11.251
ことでしょう	-11.2513
あまりにも	-11.2513
清掃	-11.2516
知り合い	-11.2516
入会	-11.2517
の水	-11.2517
▁Posted	-11.2518
▁NOT	-11.2519
紅葉	-11.2521
▁hold	-11.2521
選出	-11.2523
▁App	-11.2526
管理者	-11.2528
ics	-11.2528
期の	-11.2528
▁Su	-11.2529
▁connected	-11.253
番地	-11.253
の森	-11.2531
サクラ	-11.2532
なっています	-11.2533
cloud	-11.2534
意欲	-11.2534
んだよね	-11.2538
化した	-11.254
tab	-11.2541
言及	-11.2543
データベース	-11.2544
観光客	-11.2544
ash	-11.2546
MAX	-11.2547
会館	-11.2547
▁interesting	-11.2548
来ました	-11.2549
EU	-11.255
ギフト	-11.2552
のご	-11.2552
法第	-11.2553
単なる	-11.2553
based	-11.2553
ブレ	-11.2554
その後は	-11.2554
行われた	-11.2554
航	-11.2555
思え	-11.2556
部分を	-11.2556
ファミリー	-11.2556
を検討	-11.2559
につながる	-11.256
を取得	-11.256
えた	-11.256
井上	-11.2562
仙	-11.2562
▁iPhone	-11.2563
カス	-11.2565
受け入れ	-11.2566
合同	-11.2567
行われる	-11.2567
parent	-11.2569
砂糖	-11.257
な感じ	-11.257
系統	-11.257
のほう	-11.2573
ギャル	-11.2574
になれる	-11.2575
いけ	-11.2578
今週	-11.2579
もち	-11.2579
に加えて	-11.2583
実装	-11.2583
▁History	-11.2583
前日	-11.2583
びっくり	-11.2584
sky	-11.2584
render	-11.2585
dam	-11.2586
手が	-11.2587
ふと	-11.2588
encode	-11.2589
になってしまった	-11.2591
ブラン	-11.2592
賃金	-11.2593
OD	-11.2594
シンプルな	-11.2594
伴	-11.2595
人間関係	-11.2596
に位置する	-11.2597
ada	-11.26
附	-11.2601
一致	-11.2601
GP	-11.2603
漬け	-11.2604
部分は	-11.2604
いいね	-11.2604
内容が	-11.2605
グラン	-11.2607
たくなる	-11.2609
分から	-11.2611
福岡県	-11.2612
▁ここ	-11.2612
が来る	-11.2615
いること	-11.2615
レジ	-11.2616
遠い	-11.2616
▁Fa	-11.2617
できず	-11.2618
日曜	-11.2618
方には	-11.2619
篇	-11.2619
心臓	-11.262
▁affect	-11.2622
スッキリ	-11.2624
▁studies	-11.2624
▁demand	-11.2624
おしゃれ	-11.2624
の多い	-11.2626
特許	-11.2627
▁involved	-11.2627
®	-11.2629
洗顔	-11.2633
そちら	-11.2633
違和感	-11.2635
男の子	-11.2635
▁Solve	-11.2635
視点	-11.2636
わたしは	-11.2636
都道府県	-11.2637
▁wind	-11.2638
ないけど	-11.264
シャワー	-11.264
消防	-11.2642
シューズ	-11.2642
大和	-11.2644
▁レディース	-11.2644
▁ISBN	-11.2645
▁一方	-11.2647
好評	-11.2647
中小企業	-11.2648
詳しい	-11.265
収支	-11.2656
寝る	-11.2658
振込	-11.2658
できるよう	-11.2659
昔から	-11.266
▁national	-11.266
いずれ	-11.2662
SL	-11.2662
▁High	-11.2662
公立	-11.2663
ration	-11.2663
▁damage	-11.2666
いつもの	-11.2666
側面	-11.2667
生理	-11.2667
切った	-11.2668
二十	-11.267
▁黒	-11.2671
real	-11.2671
rid	-11.2672
多数の	-11.2674
▁今まで	-11.2675
己	-11.2677
束	-11.2677
みんなの	-11.268
##	-11.268
▁star	-11.2681
oid	-11.2683
片付け	-11.2683
るという	-11.2685
大体	-11.2686
に到着	-11.2687
テニス	-11.2688
ロウ	-11.269
▁business	-11.269
会の	-11.2694
露	-11.2695
庄	-11.2697
▁behind	-11.2697
о	-11.2697
▁everything	-11.2697
Get	-11.2698
登場人物	-11.2698
▁Press	-11.2698
出現	-11.2701
探偵	-11.2701
回避	-11.2701
▁Jan	-11.2701
は一切	-11.2703
秋の	-11.2704
Ch	-11.2704
海の	-11.2705
返す	-11.2707
お手伝い	-11.2707
ファースト	-11.2707
申し上げます	-11.2707
地点	-11.2708
IF	-11.2709
スーツ	-11.2711
▁handle	-11.2711
誰もが	-11.2711
何故	-11.2712
後悔	-11.2712
埼玉	-11.2714
大切に	-11.2717
▁changed	-11.2717
色々と	-11.2718
足の	-11.272
るために	-11.2722
DL	-11.2722
ij	-11.2723
▁Per	-11.2723
▁description	-11.2723
▁won	-11.2727
を探して	-11.2729
させていただきました	-11.2729
","	-11.2729
シルバー	-11.273
▁central	-11.273
△	-11.273
が低い	-11.2732
景気	-11.2732
妄想	-11.2734
の確保	-11.2734
かみ	-11.2736
県内	-11.2738
往復	-11.2738
進んで	-11.2738
Mac	-11.274
区間	-11.2742
芳	-11.2742
▁Another	-11.2743
Size	-11.2745
ガール	-11.2745
▁cd	-11.2747
両方	-11.2747
▁causes	-11.2748
優先	-11.2748
笠	-11.2752
ギャラリー	-11.2752
テロ	-11.2753
階段	-11.2754
▁Sh	-11.2754
風に	-11.2755
いますか	-11.2755
ムー	-11.2755
▁experiment	-11.2758
謎	-11.2758
コーデ	-11.276
▁これが	-11.276
毎	-11.2763
もまた	-11.2765
delta	-11.2766
一生	-11.2767
ドー	-11.2768
▁connection	-11.2769
むら	-11.2769
Point	-11.2769
よって	-11.277
スイス	-11.277
の基本	-11.277
カードローン	-11.2771
SEX	-11.2774
感じた	-11.2775
▁rise	-11.2776
でもない	-11.2776
日常生活	-11.2776
▁carbon	-11.2777
をとる	-11.2778
お互い	-11.2779
ご相談	-11.278
ないか	-11.278
▁こちらは	-11.2782
することも	-11.2784
Count	-11.2784
流通	-11.2784
ama	-11.2785
▁board	-11.2786
んだから	-11.2786
qu	-11.2787
同様	-11.2789
SR	-11.2792
インチ	-11.2795
▁Name	-11.2797
▁この文章では	-11.2798
共演	-11.2798
的で	-11.2798
▁skills	-11.2802
訴訟	-11.2802
を大切に	-11.2803
GE	-11.2803
▁Parameters	-11.2803
▁Lo	-11.2804
崩	-11.2805
が増える	-11.2806
体質	-11.2806
=[	-11.2806
回戦	-11.2806
のとき	-11.2808
fold	-11.2808
クラシック	-11.2808
{}	-11.281
俺の	-11.2811
▁entry	-11.2811
を読み	-11.2813
==	-11.2814
ending	-11.2814
▁fixed	-11.2817
中は	-11.2818
twitter	-11.2821
終了後	-11.2822
▁went	-11.2825
代行	-11.2825
綺麗	-11.2825
羊	-11.2825
▁女性	-11.2828
ep	-11.2829
ませんが	-11.2831
MB	-11.2831
する必要がある	-11.2831
感じです	-11.2832
ーター	-11.2832
偏	-11.2833
▁sudo	-11.2833
▁PM	-11.2833
美少女	-11.2834
カラオケ	-11.2835
類似	-11.2836
ano	-11.2836
苗	-11.2838
民主党	-11.2838
見積もり	-11.2839
イス	-11.284
頂く	-11.2841
できるので	-11.2841
の役割	-11.2842
を感じ	-11.2842
入荷	-11.2843
デモ	-11.2844
合わせて	-11.2847
形状	-11.2848
▁Home	-11.2849
▁nodes	-11.2849
コチラ	-11.2853
と思われます	-11.2853
佐々木	-11.2853
の対応	-11.2854
月曜日	-11.2856
TOP	-11.2856
普段は	-11.2856
make	-11.2857
▁deviation	-11.2858
TR	-11.2861
やってる	-11.2862
姉妹	-11.2863
いいのか	-11.2863
sta	-11.2864
長時間	-11.2866
班	-11.2867
▁French	-11.2868
▁inverse	-11.2868
仕掛け	-11.287
ase	-11.287
▁wide	-11.2871
の国	-11.2871
楽しかった	-11.2871
今日も	-11.2872
▁Take	-11.2872
}}\	-11.2872
あなたに	-11.2873
迫	-11.2873
アメリカ合衆国	-11.2875
著書	-11.2876
flow	-11.2876
暇	-11.2876
は少し	-11.2877
cho	-11.2877
PE	-11.2878
って何	-11.288
用紙	-11.288
▁ensure	-11.2881
location	-11.2882
干	-11.2883
税金	-11.2883
transform	-11.2885
浸透	-11.2886
▁fill	-11.2887
パーティ	-11.2887
▁empty	-11.2887
rb	-11.2887
んじゃないか	-11.2888
stats	-11.2888
▁electric	-11.2889
▁これで	-11.289
北朝鮮	-11.2893
まさか	-11.2894
cre	-11.2896
▁土	-11.2897
個人の	-11.2899
水を	-11.29
の意見	-11.29
ute	-11.29
しようとする	-11.29
の割合	-11.29
デメリット	-11.2901
本文	-11.2901
似	-11.2902
今年も	-11.2902
を読んで	-11.2902
職人	-11.2905
来年	-11.2907
挿入	-11.2907
ショット	-11.2909
ふく	-11.2909
服用	-11.291
らい	-11.2913
ガーデン	-11.2914
が可能です	-11.2915
朝鮮	-11.2916
工程	-11.2916
になりたい	-11.2917
ニャ	-11.2918
▁representation	-11.2918
デュ	-11.2918
ミリ	-11.2918
殆ど	-11.2918
▁Square	-11.2919
mac	-11.2919
徹	-11.2924
ていること	-11.2929
scope	-11.2929
戻	-11.2931
▁IN	-11.2934
ビックリ	-11.2935
出来ます	-11.2935
漏れ	-11.2936
▁caused	-11.2937
てん	-11.2937
を得た	-11.2939
鈴	-11.2939
浮	-11.294
上野	-11.294
その時	-11.294
立った	-11.2941
ごみ	-11.2941
pack	-11.2942
お得	-11.2943
ヤマ	-11.2943
やる気	-11.2943
を変える	-11.2944
ving	-11.2945
埼玉県	-11.2945
に出演	-11.2945
お花	-11.2946
外出	-11.2946
:`	-11.2948
荷	-11.2948
▁allowed	-11.2948
が変わる	-11.2949
規程	-11.2949
▁quickly	-11.2949
ries	-11.2949
▁formed	-11.2949
za	-11.2953
後期	-11.2953
MD	-11.2954
排出	-11.2954
話が	-11.2955
ッタ	-11.2957
著作権	-11.2957
response	-11.2959
いだ	-11.2959
fs	-11.296
クライアント	-11.296
method	-11.2965
名が	-11.2965
が最も	-11.2965
グランド	-11.2966
宮城県	-11.2966
ome	-11.2966
調べて	-11.2968
連絡先	-11.297
捨て	-11.2972
近くに	-11.2972
▁plus	-11.2973
投手	-11.2976
違います	-11.2977
お値段	-11.2978
入れる	-11.298
\"	-11.298
弱い	-11.2981
のかもしれない	-11.2982
▁upper	-11.2982
を確認する	-11.2983
がい	-11.2983
に従って	-11.2983
▁helps	-11.2984
火災	-11.2985
が強く	-11.2985
ised	-11.2986
預金	-11.2988
債権	-11.2989
見たい	-11.299
朝から	-11.299
するのか	-11.2991
▁effective	-11.2993
が欲しい	-11.2994
激安	-11.2994
カツ	-11.2995
linear	-11.2996
▁tool	-11.2996
別れ	-11.2998
しき	-11.2999
助成	-11.3001
に見える	-11.3001
を食べる	-11.3001
読んだ	-11.3002
離れ	-11.3004
ついでに	-11.3006
LIVE	-11.3007
お部屋	-11.3007
労	-11.3009
▁database	-11.3012
▁explanation	-11.3012
かっこいい	-11.3012
を提供する	-11.3016
ほうがいい	-11.3016
川崎	-11.3016
ren	-11.3016
控除	-11.3017
リニューアル	-11.3017
芋	-11.3017
▁Mathematics	-11.3017
ock	-11.3017
大量	-11.3018
変態	-11.3019
リース	-11.3019
かき	-11.302
あき	-11.3025
お父さん	-11.3026
イイ	-11.3028
ファンド	-11.3028
していたが	-11.303
かず	-11.303
嘉	-11.3031
不良	-11.3032
シンプル	-11.3032
イエス	-11.3033
丹	-11.3035
癌	-11.3035
価値観	-11.3035
dec	-11.3036
▁compare	-11.3036
フラン	-11.3037
キーボード	-11.3037
思いを	-11.3038
▁personal	-11.3039
▁German	-11.304
サービスの	-11.304
代わりに	-11.304
森林	-11.3041
というと	-11.3043
bu	-11.3043
変換	-11.3044
博士のノート	-11.3045
嫌な	-11.3047
mix	-11.3049
▁rotation	-11.305
株価	-11.3052
ホット	-11.3053
どうか	-11.3053
部屋に	-11.3053
tick	-11.3054
分で	-11.3058
うれしい	-11.3059
差別	-11.3059
σ	-11.3059
専	-11.306
っけ	-11.3061
天井	-11.3061
感じられる	-11.3062
cf	-11.3063
▁calculated	-11.3064
span	-11.3064
▁GMAT	-11.3065
声が	-11.3067
а	-11.3067
大変な	-11.3068
移	-11.3068
にしました	-11.3068
世界に	-11.307
本物	-11.3071
ジョー	-11.3072
ァ	-11.3072
▁人気	-11.3072
のお店	-11.3074
▁primary	-11.3074
除去	-11.3075
rows	-11.3075
ではなかった	-11.3075
子会社	-11.3076
が続く	-11.3078
抑制	-11.3079
NS	-11.308
ようになって	-11.308
周りの	-11.3084
はどのように	-11.3085
]}	-11.3085
const	-11.3088
状況を	-11.3088
判決	-11.3089
sal	-11.3089
▁reach	-11.3091
虎	-11.3092
結合	-11.3092
業種	-11.3093
ツー	-11.3095
使え	-11.3095
▁中国	-11.3099
イケメン	-11.3099
take	-11.3099
の量	-11.3099
rec	-11.31
▁今年は	-11.31
▁Just	-11.31
λ	-11.3102
ある日	-11.3103
▁;;	-11.3103
の購入	-11.3105
UN	-11.3109
If	-11.311
▁estimate	-11.3112
はすべて	-11.3114
▁trade	-11.3114
になれば	-11.3114
時間も	-11.3114
Reg	-11.3118
わけではありません	-11.3118
▁void	-11.312
は必ず	-11.312
Value	-11.3121
摂	-11.3122
仕上がり	-11.3122
▁wave	-11.3123
▁card	-11.3125
今回も	-11.3128
人達	-11.313
絞	-11.3131
以外は	-11.3131
▁一般	-11.3132
囲	-11.3132
の使い方	-11.3133
を見つけ	-11.3133
ますよね	-11.3134
覚悟	-11.3135
▁scientific	-11.3135
github	-11.3136
ext	-11.3136
たもの	-11.3137
本来の	-11.3138
種の	-11.3138
▁website	-11.314
を与える	-11.3142
を上げる	-11.3143
▁Open	-11.3143
メー	-11.3143
移籍	-11.3144
いただきたい	-11.3145
昼間	-11.3147
▁module	-11.3147
と感じる	-11.3147
をお願いします	-11.3148
HO	-11.3148
fill	-11.3148
ができ	-11.3149
提携	-11.3149
ハリ	-11.3151
熟	-11.3152
の各	-11.3155
に至る	-11.3156
一瞬	-11.3157
を務める	-11.3158
をしました	-11.3158
はいけない	-11.3159
醤油	-11.3159
を見つける	-11.316
不可能	-11.316
▁drive	-11.3161
inter	-11.3162
ルド	-11.3162
する必要があります	-11.3163
▁bring	-11.3164
mid	-11.3164
参考に	-11.3164
TEST	-11.3164
uff	-11.3165
▁\(	-11.3166
▁window	-11.3166
ov	-11.3168
を聞いて	-11.3168
スタンド	-11.3169
解約	-11.3169
buffer	-11.3169
今後は	-11.3172
苦手	-11.3173
を出し	-11.3173
長男	-11.3174
ゾーン	-11.3175
この本	-11.3175
貢献	-11.3176
▁ブログ	-11.3176
ジェイ	-11.3177
豆腐	-11.3179
由来	-11.3179
困る	-11.3179
ゆき	-11.3179
に向かう	-11.3181
ドリ	-11.3183
▁night	-11.3184
載せ	-11.3185
ことや	-11.3187
すこと	-11.3187
CG	-11.3189
}}$	-11.3189
はちょっと	-11.3191
先ほど	-11.3191
すっきり	-11.3194
らなかった	-11.3194
算定	-11.3195
▁touch	-11.3196
吹き	-11.3196
▁Are	-11.3198
VERSION	-11.3198
▁Reserved	-11.3199
こともあり	-11.3199
人々の	-11.32
それらの	-11.32
▁ideas	-11.32
の人が	-11.3201
▁animal	-11.3202
CON	-11.3202
岐阜	-11.3202
ようとする	-11.3203
▁とにかく	-11.3203
リック	-11.3204
当時は	-11.3205
force	-11.3206
辛	-11.3207
メジャー	-11.3208
処	-11.3209
体育館	-11.321
式の	-11.321
ky	-11.3212
▁happens	-11.3212
ご意見	-11.3213
av	-11.3213
▁attack	-11.3213
▁safe	-11.3215
教科書	-11.3215
▁grade	-11.3216
駅の	-11.3216
添付	-11.3217
営業時間	-11.3219
ロリ	-11.3221
お子様	-11.3222
頃から	-11.3223
債	-11.3223
▁dx	-11.3224
加速	-11.3225
ジュース	-11.3226
▁Sun	-11.3226
▁Area	-11.3228
何度か	-11.3228
が入って	-11.323
自民党	-11.3231
Ｒ	-11.3231
効	-11.3232
もり	-11.3233
の中心	-11.3233
つながり	-11.3233
のいい	-11.3234
▁diagram	-11.3235
コーディネート	-11.3236
▁included	-11.3238
入社	-11.3238
おかしい	-11.3239
発売された	-11.324
さと	-11.3242
▁Vi	-11.3242
▁Hu	-11.3245
血管	-11.3246
ワクワク	-11.3246
▁Read	-11.3246
溶	-11.3246
▁-*-	-11.3247
ようになります	-11.3249
parser	-11.325
▁bio	-11.3251
本書	-11.3252
ベビー	-11.3255
circ	-11.3256
▁Har	-11.3257
それなりに	-11.3258
寄り	-11.3258
▁ま	-11.3258
山形	-11.326
ダル	-11.326
ポール	-11.3261
▁speak	-11.3261
味が	-11.3263
って感じ	-11.3263
の治療	-11.3263
上がった	-11.3264
▁Where	-11.3265
フィン	-11.3266
ゲート	-11.3268
iPad	-11.3268
を用意	-11.327
馬鹿	-11.3271
撮って	-11.3271
オシャレ	-11.3271
中でも	-11.3272
二重	-11.3275
▁measurement	-11.3276
巨	-11.3277
島の	-11.3279
‐	-11.328
中身	-11.328
自然に	-11.328
▁active	-11.328
我が	-11.328
を提供	-11.3282
きれい	-11.3282
サービスを	-11.3283
主人	-11.3284
▁Cor	-11.3285
スコア	-11.3286
心理学	-11.3286
触れ	-11.3289
きれいに	-11.3289
並	-11.3289
が増え	-11.329
推奨	-11.3291
歳で	-11.3291
進出	-11.3291
麗	-11.3292
   	-11.3292
であることを	-11.3294
▁expect	-11.3295
上げた	-11.3295
nan	-11.3295
の練習	-11.3295
覚えて	-11.3296
隠し	-11.3297
早めに	-11.3298
をご	-11.3299
と述べています	-11.3299
の間で	-11.3302
digit	-11.3303
▁AM	-11.3304
東海ツアーズ	-11.3304
pid	-11.3306
nu	-11.3307
等は	-11.3307
寄せ	-11.3307
▁filter	-11.3308
重視	-11.331
価格で	-11.331
稼ぎ	-11.3312
▁switch	-11.3312
▁Explanation	-11.3314
han	-11.3314
本気で	-11.3314
近所の	-11.3315
しさ	-11.3315
▁結局	-11.3316
二人の	-11.3317
功	-11.3317
ムラ	-11.3317
▁polynomial	-11.3317
ビス	-11.3319
前期	-11.3319
に乗り	-11.3319
xml	-11.3319
をかけ	-11.3321
gan	-11.3322
鋼	-11.3322
▁easier	-11.3323
りする	-11.3323
HD	-11.3324
諦め	-11.3325
周年記念	-11.3326
zip	-11.3328
等が	-11.3329
秋田	-11.3329
を紹介します	-11.3329
を高める	-11.333
, 	-11.333
▁increases	-11.3331
マジ	-11.3331
スリー	-11.3331
ホルモン	-11.3334
▁green	-11.3335
がついて	-11.3336
化粧	-11.3336
せいか	-11.3337
出版社	-11.3338
餅	-11.3338
もはや	-11.3338
ライセンス	-11.3339
認	-11.3343
▁Ja	-11.3343
チームの	-11.3344
▁Gra	-11.3348
dataset	-11.3349
▁perfect	-11.3349
dd	-11.3349
▁internal	-11.335
偽物	-11.335
認知症	-11.3351
どれくらい	-11.3353
game	-11.3354
draw	-11.3354
VS	-11.3354
理念	-11.3355
シャン	-11.3355
の味	-11.3356
ケー	-11.3356
▁Physics	-11.3357
ようにしましょう	-11.3358
▁Im	-11.3358
▁scientists	-11.3359
▁確かに	-11.3359
diff	-11.3364
熱い	-11.3365
一緒	-11.3366
を使用した	-11.3366
▁purpose	-11.3367
休暇	-11.3367
持つ	-11.3369
たまたま	-11.3371
荘	-11.3371
負荷	-11.3372
ソウル	-11.3373
金沢	-11.3374
来週	-11.3374
おすすめです	-11.3374
懸念	-11.3375
TI	-11.3375
世界で	-11.3376
▁talk	-11.3377
▁En	-11.3377
レザー	-11.3378
▁spread	-11.3378
ica	-11.3378
時点	-11.3379
call	-11.3379
nodes	-11.3381
ことがわかります	-11.3381
ニック	-11.3381
してみた	-11.3382
機能を	-11.3384
ナス	-11.3387
地上	-11.3388
md	-11.3388
▁derivative	-11.3388
イチ	-11.3389
▁classes	-11.339
自然と	-11.3391
COM	-11.3392
錠	-11.3396
との連携	-11.3396
á	-11.3396
ably	-11.3397
HA	-11.34
BR	-11.34
チップ	-11.3401
ボーナス	-11.3401
Dict	-11.3405
映画の	-11.3406
▁exercise	-11.3406
pose	-11.3406
にあたり	-11.3407
移行	-11.3407
]	-11.3407
売って	-11.3408
▁Windows	-11.3408
明確に	-11.3411
方向に	-11.3412
ヨー	-11.3413
と同様に	-11.3413
新品	-11.3413
gg	-11.3414
頃に	-11.3415
ソリューション	-11.3416
▁community	-11.3416
地域で	-11.3417
そのとき	-11.3417
いらっしゃる	-11.342
のようです	-11.342
譲	-11.342
記事を	-11.3421
ゆっくりと	-11.3421
▁Post	-11.3425
アナウンサー	-11.3426
ヒロイン	-11.3426
されていて	-11.3429
}^	-11.343
▁includes	-11.3431
入口	-11.3433
テー	-11.3434
▁Oct	-11.3434
ありがたい	-11.3435
具体的には	-11.3436
にかかる	-11.3437
一定	-11.3438
容器	-11.3441
告	-11.3443
のデザイン	-11.3444
ねん	-11.3445
のお知らせ	-11.3447
出店	-11.3447
を対象に	-11.3447
ブーム	-11.3449
You	-11.345
が難しい	-11.3451
RSS	-11.3453
▁magnitude	-11.3453
ポー	-11.3456
ウェ	-11.3456
ore	-11.3457
協定	-11.3457
ero	-11.3457
ーナ	-11.3459
風味	-11.3459
DR	-11.346
がありますか	-11.346
▁gene	-11.346
・・・」	-11.3462
ants	-11.3462
バター	-11.3465
ドキドキ	-11.3465
発電	-11.3466
練	-11.3468
Base	-11.3468
追記	-11.3468
ris	-11.3469
消化	-11.3469
▁express	-11.3471
悪魔	-11.3471
ステーション	-11.3471
のだから	-11.3473
る事	-11.3473
を見ながら	-11.3473
▁predict	-11.3474
かかって	-11.3474
歌う	-11.3477
の管理	-11.3478
▁Amazon	-11.3478
保障	-11.3478
▁Europe	-11.3479
▁grep	-11.3479
ならず	-11.348
いろいろと	-11.3481
▁他の	-11.3482
辺り	-11.3483
と述べられています	-11.3484
install	-11.3484
Wi	-11.3484
フィリピン	-11.3485
シナリオ	-11.3485
でしょうね	-11.3485
ェ	-11.3486
FT	-11.3487
日以上更新していないブログに表示	-11.349
に該当する	-11.349
▁Python	-11.3492
面で	-11.3495
この日は	-11.3495
点は	-11.3496
シュー	-11.3498
詐欺	-11.3499
一杯	-11.3501
を教えて	-11.3502
潜	-11.3502
心から	-11.3503
口に	-11.3504
▁''	-11.3505
演習	-11.3507
channels	-11.3507
海外旅行	-11.3507
にあたって	-11.351
を取って	-11.3511
}.	-11.3511
▁ad	-11.3513
周辺の	-11.3514
▁meters	-11.3516
かえ	-11.3517
知る	-11.3517
日中	-11.3521
レート	-11.3521
いざ	-11.3524
以後	-11.3525
天使	-11.3526
落とし	-11.3527
に行き	-11.3527
圧力	-11.3529
全国の	-11.3529
裸	-11.3532
庫	-11.3532
なんだけど	-11.3533
▁Si	-11.3533
words	-11.3534
▁parent	-11.3535
漢字	-11.3535
薄い	-11.3536
フライ	-11.3536
お子さん	-11.3537
姓	-11.3539
ord	-11.3541
ポジション	-11.3541
▁vote	-11.3542
することに	-11.3544
くら	-11.3545
きれいな	-11.3545
タンク	-11.3546
▁それが	-11.3548
めの	-11.3548
▁mathematics	-11.3549
個体	-11.3553
うつ	-11.3553
勢い	-11.3555
ないから	-11.3555
ぺ	-11.3557
足を	-11.3559
Text	-11.356
▁lost	-11.356
も含めて	-11.3562
▁mid	-11.3563
▁north	-11.3564
wi	-11.3564
syn	-11.3565
の事	-11.3567
っていました	-11.3569
と言われて	-11.3571
いきたい	-11.3571
▁sent	-11.3573
まじ	-11.3573
将来の	-11.3573
▁Ge	-11.3573
▁Lesson	-11.3575
▁closed	-11.3575
▁char	-11.3577
がり	-11.3581
park	-11.3583
auto	-11.3583
▁Theorem	-11.3584
陸軍	-11.3584
ison	-11.3588
▁以前	-11.3589
▁pages	-11.3589
貫	-11.3589
銘柄	-11.3589
画家	-11.3591
引っ越し	-11.3592
を決める	-11.3593
ヒル	-11.3593
TC	-11.3594
餌	-11.3594
発想	-11.3595
磨	-11.3595
ホテルの	-11.3598
▁letter	-11.3598
change	-11.3598
Ｌ	-11.3599
舎	-11.36
PL	-11.3603
ほとんどの	-11.3608
を超えて	-11.3608
少なく	-11.3611
▁designed	-11.3611
▁labels	-11.3612
メモリ	-11.3613
猛	-11.3614
有機	-11.3614
となっており	-11.3614
伯	-11.3617
ショウ	-11.3617
申し	-11.3618
Ｏ	-11.362
たとえ	-11.362
ラウンド	-11.3621
昼食	-11.3622
代金	-11.3622
バンク	-11.3623
▁Great	-11.3624
創設	-11.3624
内科	-11.3624
acy	-11.3626
AKB	-11.3626
啓	-11.3627
建築物	-11.3628
▁gain	-11.3628
}_	-11.3628
酸化	-11.3629
ザン	-11.3629
)):	-11.363
Key	-11.3631
▁activities	-11.3634
ene	-11.3635
薄く	-11.3636
なのでしょうか	-11.3638
と考えられます	-11.3638
されていました	-11.3638
唐	-11.3639
タンパク質	-11.3639
湧	-11.3639
おじさん	-11.364
指数	-11.3641
するとともに	-11.3643
▁bank	-11.3643
消費税	-11.3645
年目	-11.3645
の雰囲気	-11.3646
なこと	-11.3646
▁mini	-11.3647
癒し	-11.3647
激しく	-11.3647
features	-11.3649
ホント	-11.365
ごとの	-11.3651
▁completely	-11.3652
のバランス	-11.3652
wise	-11.3654
達の	-11.3655
悪化	-11.3655
▁issues	-11.3656
なきゃ	-11.3656
ger	-11.3656
認知	-11.3656
菓子	-11.3658
としたら	-11.3659
上げて	-11.366
養成	-11.366
と考え	-11.3661
ific	-11.3662
ちん	-11.3662
店で	-11.3663
▁Jul	-11.3665
▁adding	-11.367
二つ	-11.3671
効果的な	-11.3672
シル	-11.3672
mes	-11.3673
福島県	-11.3674
▁begin	-11.3674
同期	-11.3676
▁op	-11.3677
溝	-11.3679
▁According	-11.3679
が出てくる	-11.3681
;)	-11.3681
効果は	-11.3681
▁thread	-11.3681
▁Law	-11.3681
▁gets	-11.3681
をすると	-11.3682
が行われた	-11.3683
倉庫	-11.3685
踊り	-11.3685
マイル	-11.3687
▁rows	-11.3688
▁solving	-11.3688
幻	-11.3689
dimensional	-11.369
リクエスト	-11.3691
まくり	-11.3692
入浴	-11.3692
▁これから	-11.3693
名義	-11.3696
pu	-11.3696
さを	-11.3697
ians	-11.37
集会	-11.37
然	-11.3701
してい	-11.3703
*(	-11.3704
肌が	-11.3705
改定	-11.3707
っていく	-11.3709
▁applications	-11.3709
▁columns	-11.3709
勤め	-11.3711
を参考に	-11.3711
スキ	-11.3713
ological	-11.3714
▁ret	-11.3714
hal	-11.3715
▁Linear	-11.3715
▁details	-11.3715
の皆さん	-11.3717
▁Author	-11.3717
からこそ	-11.3717
project	-11.3718
代表者	-11.3719
アク	-11.3722
cd	-11.3722
ぉ	-11.3722
小物	-11.3724
DI	-11.3725
選抜	-11.3725
優良	-11.3725
をやって	-11.3725
神奈川県	-11.3726
'),	-11.3726
を開始	-11.3727
描き	-11.3727
徹底	-11.3729
pot	-11.3729
結果は	-11.3729
types	-11.3729
すみません	-11.373
キレイ	-11.373
今年度	-11.3731
For	-11.3732
columns	-11.3735
................	-11.3735
池田	-11.3735
ものではない	-11.3736
致	-11.3737
▁Our	-11.3738
一生懸命	-11.374
行われ	-11.3742
ik	-11.3743
を書いて	-11.3743
Д	-11.3745
借入	-11.3746
▁represented	-11.3746
区別	-11.3746
若手	-11.3748
本番	-11.3748
カワ	-11.3748
にし	-11.3748
上下	-11.3748
の前で	-11.3749
ミュ	-11.375
広島県	-11.375
会う	-11.3751
切る	-11.3751
牧	-11.3753
Ro	-11.3754
今朝	-11.3755
補償	-11.3755
▁reserved	-11.3756
Cl	-11.3757
おやつ	-11.3757
ヲ	-11.3759
部会	-11.376
▁sources	-11.3761
人から	-11.3764
かかった	-11.3764
ガード	-11.3765
▁throughout	-11.3766
▁continuous	-11.3767
混乱	-11.377
ブレーキ	-11.3771
にわたって	-11.3771
格好	-11.3771
乾	-11.3771
▁Out	-11.3772
ded	-11.3773
斗	-11.3774
あらかじめ	-11.3775
文献	-11.3776
▁batch	-11.3777
綾	-11.3777
▁sed	-11.3777
のポイント	-11.3778
yo	-11.3778
申	-11.3779
煙	-11.378
表彰	-11.378
給付	-11.378
量が	-11.3782
連休	-11.3784
なんだろう	-11.3785
貝	-11.3786
響	-11.3786
▁Sep	-11.3787
ニコ	-11.3788
▁val	-11.3788
ディズニー	-11.379
active	-11.3793
様な	-11.3794
tri	-11.3796
夜は	-11.38
正規	-11.3801
キャンパス	-11.3801
怪我	-11.3801
凄く	-11.3801
中野	-11.3802
お湯	-11.3803
▁tuple	-11.3803
ーん	-11.3804
▁education	-11.3804
KEY	-11.3806
▁wire	-11.3806
という意味	-11.3808
cp	-11.3808
シス	-11.3809
聴	-11.381
定着	-11.381
スムーズに	-11.3811
本を	-11.3811
オランダ	-11.3812
瓶	-11.3816
▁Yes	-11.3817
たりする	-11.3818
芸能	-11.3819
▁soon	-11.3819
相続	-11.382
法の	-11.382
撃	-11.3821
を買い	-11.3823
▁業	-11.3823
ates	-11.3825
決議	-11.3825
元気に	-11.3826
Do	-11.3827
パク	-11.3828
しまうと	-11.3828
麦	-11.3828
理事会	-11.3829
▁metal	-11.383
▁eight	-11.383
ジャック	-11.3831
初日	-11.3831
計測	-11.3831
邪魔	-11.3832
であったが	-11.3833
イギリスの	-11.3835
▁characters	-11.3837
やっぱ	-11.3837
見通し	-11.3839
▁meet	-11.384
看板	-11.3841
エラー	-11.3841
違った	-11.3842
いたのですが	-11.3842
後日	-11.3843
頭に	-11.3843
段階で	-11.3844
を進める	-11.3845
丼	-11.3847
担保	-11.3847
富山	-11.3848
▁stay	-11.3848
架	-11.3849
以前の	-11.3849
正しく	-11.3849
▁Lu	-11.385
丁	-11.385
ヒーロー	-11.3851
奥さん	-11.3851
▁南	-11.3851
伝説	-11.3852
コスメ	-11.3853
補正	-11.3854
に応じた	-11.3855
▁ca	-11.3855
を得て	-11.3857
遅	-11.3857
年前に	-11.3857
▁station	-11.3858
お尻	-11.386
気を	-11.386
するのも	-11.386
ってきた	-11.386
の質	-11.386
ばら	-11.3861
みんなが	-11.3862
product	-11.3862
▁although	-11.3863
▁occurs	-11.3863
防水	-11.3864
するまで	-11.3865
レーザー	-11.3866
と考えて	-11.3867
ツイッター	-11.3867
▁hit	-11.3868
作られた	-11.3869
まつり	-11.3871
▁Twitter	-11.3871
・・・・・	-11.3871
];	-11.3872
銅	-11.3872
消費者金融	-11.3873
ゲイ	-11.3873
arrow	-11.3874
頂きました	-11.3874
の機能	-11.3876
▁Joined	-11.3877
農家	-11.3877
hash	-11.3878
がかかる	-11.388
▁Dis	-11.388
になるので	-11.3881
▁algebra	-11.3881
▁Bu	-11.3881
阪神	-11.3882
あえて	-11.3883
eu	-11.3884
サーバ	-11.3885
▁fluid	-11.3885
の主な	-11.3885
▁critical	-11.3886
確	-11.3887
オナニー	-11.3888
会社が	-11.3888
保守	-11.389
utor	-11.389
ふたり	-11.3891
▁seven	-11.3892
故	-11.3893
同僚	-11.3893
ズの	-11.3894
▁mod	-11.3894
▁treat	-11.3897
システムの	-11.3898
プロデュース	-11.3898
夫の	-11.3898
あれば	-11.3898
まちづくり	-11.3899
rum	-11.39
▁シャネル	-11.3902
▁filename	-11.3906
性別	-11.3907
の音	-11.3908
と言われた	-11.3909
愛知	-11.391
如	-11.3912
ATION	-11.3912
の木	-11.3913
況	-11.3914
見えて	-11.3916
菊	-11.3916
出演者	-11.3917
量は	-11.3917
を行いました	-11.392
登山	-11.3925
▁pain	-11.3926
へん	-11.3926
回線	-11.3926
足り	-11.3926
▁carry	-11.3927
疲労	-11.3928
▁(@	-11.3929
蓄積	-11.3929
老人	-11.393
▁separate	-11.3931
けどね	-11.3931
してしまいました	-11.3931
カム	-11.3933
いいでしょう	-11.3936
CPU	-11.3938
BL	-11.3938
レーション	-11.394
▁poor	-11.394
号線	-11.394
ses	-11.394
続けた	-11.3941
何より	-11.3941
Th	-11.3942
ナル	-11.3942
日本は	-11.3945
図書	-11.3945
▁author	-11.3946
立地	-11.3946
勤	-11.3946
快適	-11.3946
国産	-11.3946
厳選	-11.3947
わかりません	-11.3948
気をつけ	-11.3949
所に	-11.395
▁influence	-11.3952
巡り	-11.3953
▁dtype	-11.3954
診察	-11.3955
青山	-11.3955
▁quality	-11.3956
ディスク	-11.3957
yn	-11.3957
ane	-11.3958
肥	-11.3959
MT	-11.396
▁Nov	-11.3962
ご存知	-11.3963
van	-11.3963
幼児	-11.3965
暴力	-11.3966
▁distinct	-11.3967
ント	-11.3967
サム	-11.3968
rot	-11.3968
てい	-11.3969
▁Mark	-11.3969
ユーロ	-11.397
こちらで	-11.397
含む	-11.397
刊行	-11.397
危機	-11.397
▁recent	-11.397
..."	-11.397
execute	-11.397
のようなもの	-11.3971
Color	-11.3972
▁(-	-11.3972
考えた	-11.3972
ata	-11.3975
▁enumerate	-11.3976
ブログで	-11.3976
ディスプレイ	-11.3976
に興味	-11.3977
働いて	-11.398
の授業	-11.3981
あっという間に	-11.3981
専攻	-11.3983
▁buy	-11.3983
を選択	-11.3984
▁split	-11.3985
の提供	-11.3986
の会	-11.3987
reset	-11.3987
▁Questions	-11.3989
▁depends	-11.399
▁solid	-11.399
ひたすら	-11.3991
はっきり	-11.3993
基金	-11.3993
ball	-11.3994
NC	-11.3994
Mo	-11.3995
▁hundred	-11.3995
ドラム	-11.3995
'''	-11.3996
狭	-11.3997
▁increasing	-11.3998
ck	-11.3999
について教えてください	-11.4
の旅	-11.4001
を教えてください	-11.4001
寄付	-11.4002
合わない	-11.4002
のち	-11.4003
分かりません	-11.4007
▁download	-11.4009
賛成	-11.4009
粗	-11.4011
たけど	-11.4013
▁なんか	-11.4014
▁Union	-11.4016
帰国	-11.4017
がなかった	-11.4017
OM	-11.4018
幼	-11.4019
▁planet	-11.4021
寿司	-11.4022
の設置	-11.4022
▁DNA	-11.4023
話題の	-11.4024
の曲	-11.4025
外に	-11.4026
プレート	-11.4027
▁fuel	-11.4027
人間が	-11.4028
デザート	-11.4028
今すぐ	-11.4029
起きて	-11.403
ウィン	-11.4032
プラットフォーム	-11.4033
PORT	-11.4033
▁climate	-11.4033
以前から	-11.4034
割れ	-11.4035
NE	-11.4035
ルイ	-11.4036
を学ぶ	-11.4036
和田	-11.4036
を披露	-11.4037
▁die	-11.4037
高齢	-11.4037
腰痛	-11.4038
の経験	-11.4038
哲	-11.4039
â	-11.4041
神の	-11.4042
いきました	-11.4042
私自身	-11.4044
っても	-11.4044
ないといけない	-11.4047
出会った	-11.4048
自衛隊	-11.4049
きょう	-11.4049
江戸時代	-11.405
触	-11.405
ことができた	-11.4051
▁木	-11.4053
られていた	-11.4053
伝える	-11.4054
だんだん	-11.4054
あらすじ	-11.4054
改造	-11.4055
と言います	-11.4056
▁eye	-11.4058
▁注釈	-11.4059
求める	-11.4059
iation	-11.406
een	-11.4061
▁guess	-11.4061
ラル	-11.4061
util	-11.4063
の頃	-11.4063
飛んで	-11.4063
ブーツ	-11.4067
コンテスト	-11.4067
もありました	-11.4068
捜査	-11.4069
構想	-11.4069
ユーザ	-11.407
▁mixi	-11.407
▁AND	-11.4071
ool	-11.4072
共感	-11.4073
▁foot	-11.4074
器具	-11.4075
PI	-11.4075
ビア	-11.4075
連邦	-11.4077
暴	-11.4078
▁measured	-11.4079
を下	-11.408
圭	-11.408
▁attention	-11.408
▁reaction	-11.4082
ジェル	-11.4082
ali	-11.4083
通過	-11.4084
▁alternative	-11.4086
ひどい	-11.4086
▁imp	-11.4086
ブロ	-11.4086
ail	-11.4087
su	-11.4091
▁Unit	-11.4091
気持ちを	-11.4091
▁BookLive	-11.4092
▁pp	-11.4092
アピール	-11.4092
ベー	-11.4093
ヤン	-11.4094
▁individuals	-11.4095
汚	-11.4095
put	-11.4095
関連の	-11.4098
循環	-11.4098
ヒント	-11.4098
取れる	-11.41
マッ	-11.4101
▁push	-11.4101
と感じた	-11.4102
指揮	-11.4104
ital	-11.4104
▁主な	-11.4105
トム	-11.4105
は何か	-11.4105
▁Exercise	-11.4107
させて頂きます	-11.4107
▁identify	-11.4109
▁Don	-11.411
を確保	-11.4111
絵画	-11.4111
することにより	-11.4111
亭	-11.4112
▁truth	-11.4112
椅子	-11.4115
▁balance	-11.4115
プレス	-11.4116
日本人の	-11.4117
▁looks	-11.4117
Yahoo	-11.4117
クマ	-11.4118
在宅ワーク	-11.4118
コム	-11.4118
png	-11.4119
入門	-11.4121
▁ref	-11.4122
全体的に	-11.4122
お祝い	-11.4123
中部	-11.4123
bind	-11.4123
見込み	-11.4124
やん	-11.4125
を切り	-11.4126
隣の	-11.4126
king	-11.4126
▁それにしても	-11.4126
stop	-11.4127
▁Free	-11.4127
パスタ	-11.4128
▁chain	-11.4129
声を	-11.4129
ども	-11.413
レモン	-11.413
峠	-11.4133
スル	-11.4133
署名	-11.4133
ナンパ	-11.4134
大阪府	-11.4134
▁otherwise	-11.4135
濃	-11.4135
どころ	-11.4137
を追加	-11.4138
curr	-11.4139
にくく	-11.4139
受け付け	-11.414
外の	-11.414
}=\	-11.4141
▁patterns	-11.4143
ven	-11.4144
▁ship	-11.4146
エンジニア	-11.4148
通りの	-11.4148
▁quantity	-11.4149
に比べ	-11.415
謝	-11.415
sleep	-11.415
ib	-11.4152
したため	-11.4154
Ｆ	-11.4154
附属	-11.4154
食べたい	-11.4154
おかげで	-11.4155
したとき	-11.4156
先端	-11.4157
▁placed	-11.4158
の強化	-11.4158
ew	-11.4159
まわり	-11.4159
数多く	-11.416
▁cards	-11.416
進学	-11.4161
なくなります	-11.4163
mount	-11.4164
に限らず	-11.4164
Message	-11.4164
わら	-11.4165
されると	-11.4165
GT	-11.4168
rice	-11.4169
肺	-11.4169
▁equals	-11.417
▁relation	-11.4171
お金が	-11.4172
マリア	-11.4173
в	-11.4173
▁compared	-11.4174
概念	-11.4175
鉢	-11.4175
を使用	-11.4176
季	-11.4176
沈	-11.4177
以降の	-11.4178
カテゴリ	-11.4178
なぜなら	-11.4178
付ける	-11.4179
NY	-11.418
ale	-11.418
DataFrame	-11.4181
Facebook	-11.4183
ボル	-11.4183
困った	-11.4185
▁Args	-11.4186
ではないでしょうか	-11.4187
が少し	-11.4188
の名	-11.419
なにか	-11.4191
淳	-11.4191
校舎	-11.4192
aring	-11.4193
達が	-11.4193
技能	-11.4194
場合がございます	-11.4194
を迎える	-11.4196
▁missing	-11.4197
ets	-11.4198
調達	-11.42
っぽく	-11.42
θ	-11.42
すき	-11.4203
が特徴	-11.4203
▁pan	-11.4205
プラザ	-11.4205
▁arc	-11.4205
▁エ	-11.4206
故障	-11.4207
処方	-11.4208
▁typically	-11.4209
ポーズ	-11.4209
をクリック	-11.421
▁appears	-11.4211
▁military	-11.4212
▁disc	-11.4212
▁receive	-11.4213
▽	-11.4213
たちに	-11.4213
かく	-11.4214
ically	-11.4215
▁前回	-11.4216
起きた	-11.4216
埋め	-11.4217
▁img	-11.4217
folder	-11.4218
見ている	-11.4218
の為	-11.4219
先生に	-11.4219
悲しい	-11.4221
▁diet	-11.4223
もらいました	-11.4228
▁春	-11.423
rain	-11.423
外れ	-11.4231
男性の	-11.4231
の裏	-11.4232
歓迎	-11.4233
フランスの	-11.4234
▁Jun	-11.4235
地に	-11.4237
無駄	-11.4238
▁Line	-11.4238
事も	-11.4239
にしか	-11.424
ニン	-11.424
▁Once	-11.4241
section	-11.4242
▁Next	-11.4244
予備	-11.4244
'):	-11.4244
キュー	-11.4245
土曜	-11.4246
前記	-11.4246
）：	-11.4247
裁	-11.4249
冷凍	-11.4249
sensor	-11.425
edge	-11.4251
してみましょう	-11.4251
していきたい	-11.4252
オススメです	-11.4252
sup	-11.4255
▁Tags	-11.4257
店長	-11.4258
obs	-11.4258
好きです	-11.4259
行い	-11.4259
ツイート	-11.426
options	-11.426
▁notice	-11.4261
になっても	-11.4261
食堂	-11.4265
日々の	-11.4265
弓	-11.4265
今までの	-11.4266
ves	-11.4267
device	-11.4267
中島	-11.4268
バイオ	-11.4268
部屋の	-11.4268
通りに	-11.4268
▁samples	-11.4269
企業が	-11.427
▁Research	-11.4271
▁roots	-11.4272
ju	-11.4272
iness	-11.4272
じゃないですか	-11.4272
▁token	-11.4273
その後の	-11.4276
を知って	-11.4276
Build	-11.4276
てから	-11.4277
を含め	-11.4279
抽出	-11.4279
文句	-11.428
をしたり	-11.428
▁Well	-11.4281
亮	-11.4281
cursor	-11.4282
思っている	-11.4285
▁'{	-11.4285
リサイクル	-11.4286
layer	-11.4286
晩	-11.4286
コマ	-11.4286
の為に	-11.4287
▁diameter	-11.4287
うまい	-11.4289
相手を	-11.4289
VA	-11.429
生まれた	-11.429
グラム	-11.429
▁cube	-11.4291
▁optional	-11.4292
説明会	-11.4292
▁chemical	-11.4292
この曲	-11.4293
このため	-11.4293
▁次の	-11.4295
▁International	-11.4298
ボーカル	-11.4298
▁walk	-11.43
遊ぶ	-11.43
▁late	-11.43
並び	-11.4301
右上の	-11.4303
交代	-11.4303
書かれた	-11.4304
しなければ	-11.4305
に合った	-11.4305
の顔	-11.4307
良いです	-11.4307
シニア	-11.4309
かす	-11.431
▁  	-11.431
先週	-11.431
▁&=	-11.431
▁sa	-11.4311
▁lack	-11.4314
OC	-11.4314
▁March	-11.4315
基本的には	-11.4315
髪の毛	-11.4317
=`	-11.4317
全日本	-11.4317
職種	-11.4318
をもつ	-11.4319
袖	-11.4321
inf	-11.4321
テレビで	-11.4322
美女	-11.4322
▁Second	-11.4323
ッカー	-11.4323
糖尿病	-11.4324
has	-11.4324
の見直し	-11.4327
onic	-11.4328
▁segment	-11.4329
もしかしたら	-11.433
をつくる	-11.4331
自体が	-11.4333
▁このような	-11.4333
▁edges	-11.4333
子どもが	-11.4333
リアン	-11.4334
抽選	-11.4335
鑑定	-11.4336
濃度	-11.4336
cy	-11.4336
日本代表	-11.4337
hor	-11.4337
ターゲット	-11.4338
儀	-11.4338
はなかった	-11.434
疑	-11.4342
吸	-11.4342
▁notation	-11.4342
がほとんど	-11.4342
MIN	-11.4344
自立	-11.4344
IR	-11.4344
lam	-11.4345
▁topic	-11.4346
▁Consider	-11.4346
いっ	-11.4346
歳以上	-11.4347
ることは	-11.4347
男性が	-11.4347
言われて	-11.4348
創作	-11.4348
ミックス	-11.4349
払	-11.435
しかった	-11.435
家族の	-11.435
ただの	-11.4351
坊	-11.4355
を考え	-11.4356
せよ	-11.4357
ガチャ	-11.4357
の活用	-11.4358
▁determined	-11.4358
▁proportion	-11.436
▁sentence	-11.436
を見せ	-11.4361
よりは	-11.4362
}-	-11.4362
地の	-11.4363
に掲載	-11.4364
任せ	-11.4364
らし	-11.4366
▁attempt	-11.4366
))	-11.4366
無効	-11.4369
べく	-11.4371
テレビドラマ	-11.4371
しめ	-11.4372
数の	-11.4372
▁supply	-11.4373
わか	-11.4373
哲学	-11.4375
してみてください	-11.4375
▁absolute	-11.4377
耳に	-11.4378
ことと	-11.4381
▁particularly	-11.4381
omega	-11.4383
グランプリ	-11.4384
element	-11.4385
頭痛	-11.4385
▁AB	-11.4386
本件	-11.4386
あて	-11.4386
▁――	-11.4388
付き合い	-11.4388
李	-11.4389
を大きく	-11.4389
を購入する	-11.4389
以前に	-11.439
といって	-11.4391
と言えます	-11.4392
rho	-11.4394
AA	-11.4394
鹿児島	-11.4394
ition	-11.4394
cha	-11.4395
where	-11.4395
運命	-11.4395
▁このように	-11.4396
▁pairs	-11.4397
を防ぐ	-11.4398
の奥	-11.4398
]),	-11.4399
っす	-11.4399
▁Rs	-11.4401
食欲	-11.4402
に含まれる	-11.4402
OB	-11.4402
▁tax	-11.4403
アイコン	-11.4405
フェス	-11.4406
講習	-11.4407
にまで	-11.4407
明記	-11.4407
朝日	-11.4408
ドロ	-11.4408
鎮	-11.441
▁selected	-11.441
可能性が高い	-11.4412
的にも	-11.4412
何の	-11.4412
乙	-11.4412
ミラー	-11.4413
洗	-11.4413
算出	-11.4413
の下に	-11.4414
▁あの	-11.4416
hole	-11.4417
他社	-11.4421
は全て	-11.4421
▁FAX	-11.4422
借	-11.4423
ヘル	-11.4423
▁exact	-11.4423
住み	-11.4423
回し	-11.4424
FO	-11.4426
▁India	-11.4428
届く	-11.4429
がおすすめです	-11.4429
じゃないか	-11.4429
求め	-11.443
化粧水	-11.4431
マネージャー	-11.4432
を担当	-11.4434
ros	-11.4435
炎症	-11.4435
gra	-11.4435
くれます	-11.4435
はどれですか	-11.4437
▁General	-11.4439
向けに	-11.444
同士の	-11.4441
いこう	-11.4441
震災	-11.4442
郵送	-11.4442
の時代	-11.4443
ε	-11.4443
そこは	-11.4444
ことができない	-11.4445
北部	-11.4446
体系	-11.4447
夜間	-11.4448
Microsoft	-11.4449
所で	-11.4449
祝日	-11.4449
エクス	-11.4449
長野	-11.4451
頂ける	-11.4451
決めた	-11.4452
を作成	-11.4454
カレンダー	-11.4454
ワイド	-11.4454
のページ	-11.4456
Tree	-11.4456
▁CD	-11.4456
ware	-11.4458
ばかりで	-11.4458
察	-11.4458
▁interact	-11.4459
間で	-11.4459
省略	-11.446
服装	-11.4461
免疫	-11.4461
ポイントは	-11.4461
拝	-11.4462
拓	-11.4464
上場	-11.4464
▁今日も	-11.4465
負債	-11.4465
出品	-11.4465
move	-11.4465
▁calculation	-11.4466
アロマ	-11.4466
知りたい	-11.4466
を行っています	-11.4466
倒れ	-11.4467
製品の	-11.4467
朗	-11.4468
してました	-11.4468
給食	-11.4468
フラワー	-11.4468
テック	-11.4469
忍	-11.4469
依	-11.4469
顧問	-11.447
this	-11.4471
▁そもそも	-11.4471
▁button	-11.4471
偽	-11.4472
空き	-11.4474
task	-11.4474
同じような	-11.4474
▁chart	-11.4476
tb	-11.4477
呼	-11.4478
のいずれか	-11.4478
モーター	-11.4478
みたいで	-11.4479
申込み	-11.448
机	-11.448
ino	-11.4481
news	-11.4482
を変更	-11.4484
迷惑	-11.4485
成人	-11.4485
先生は	-11.4486
▁researchers	-11.4486
フェラ	-11.4487
人も多い	-11.4488
▁towards	-11.4488
headers	-11.4488
▁squares	-11.4488
comp	-11.4488
▁Min	-11.4489
▁suggest	-11.4489
自覚	-11.449
entry	-11.449
自動的に	-11.4491
で購入	-11.4491
▁testing	-11.4492
▁Mac	-11.4492
定める	-11.4493
貴族	-11.4494
▁resulting	-11.4495
が始まる	-11.4495
▁Chi	-11.4496
木の	-11.4497
お気に入りの	-11.4498
uk	-11.4498
▁humans	-11.4498
ード	-11.4499
というところ	-11.4499
▁combination	-11.45
に対しては	-11.45
行こう	-11.4503
かせ	-11.4504
organ	-11.4505
マイクロ	-11.4505
動画を	-11.4506
▁JR	-11.4506
わず	-11.4507
リビング	-11.4509
揃え	-11.451
充	-11.4511
ui	-11.4513
が気になる	-11.4513
▁query	-11.4516
▁discussion	-11.4519
郵便	-11.452
sis	-11.4521
霧	-11.4523
対象者	-11.4527
暗い	-11.4527
▁gl	-11.4528
ゼン	-11.4529
GL	-11.4529
複雑	-11.4529
LI	-11.4531
▁acid	-11.4533
送付	-11.4533
uc	-11.4534
iel	-11.4535
ography	-11.4536
こん	-11.4537
キッズ	-11.4538
恥ずかしい	-11.4539
sen	-11.4539
浪	-11.454
og	-11.4541
つま	-11.4541
お姉さん	-11.4542
複雑な	-11.4543
ぼう	-11.4543
ろうと	-11.4543
おっぱい	-11.4547
Ｈ	-11.4547
▁told	-11.4547
▁creating	-11.4547
地下鉄	-11.455
入試	-11.4552
職員の	-11.4556
を求め	-11.4557
三重県	-11.4557
えば	-11.4558
投与	-11.4558
の実	-11.4558
人がいる	-11.4558
tle	-11.456
脂	-11.4561
▁Equations	-11.4562
立って	-11.4562
を押し	-11.4564
周知	-11.4565
MF	-11.4565
▁日帰り	-11.4565
▁cycle	-11.4566
ほんとに	-11.4567
ストリート	-11.4568
してみる	-11.4571
PM	-11.4572
▁mark	-11.4572
寒さ	-11.4572
いら	-11.4572
州の	-11.4573
近代	-11.4574
RY	-11.4574
▁fig	-11.4574
ゼル	-11.4578
テント	-11.4579
のブログ	-11.4579
▁parents	-11.4579
簡易	-11.458
何らかの	-11.4581
▁Base	-11.4582
の責任	-11.4582
軍の	-11.4582
▁costs	-11.4583
招待	-11.4584
怖	-11.4585
新型	-11.4585
▁capital	-11.4586
Image	-11.4587
▁currently	-11.4592
の成長	-11.4594
ラップ	-11.4594
を展開	-11.4595
▁hypothesis	-11.4597
▁published	-11.4597
▁China	-11.4598
性を	-11.4598
の運営	-11.4598
造り	-11.4599
スは	-11.4599
とい	-11.46
我々	-11.4601
かれた	-11.4601
NI	-11.4602
▁remaining	-11.4603
ほん	-11.4605
Net	-11.4605
呼び	-11.4606
▁Fe	-11.4606
iff	-11.4607
▁Ko	-11.4607
薬剤師	-11.4608
ないもの	-11.4608
短く	-11.4608
えない	-11.4608
四国	-11.4609
コンパクト	-11.461
この時	-11.4612
▁みんな	-11.4614
車が	-11.4615
誤り	-11.4615
eb	-11.4615
トンネル	-11.4616
到達	-11.4616
が異なる	-11.462
書き込み	-11.4622
外で	-11.4622
に行きました	-11.4623
Box	-11.4624
IX	-11.4624
tokens	-11.4624
我が家の	-11.4625
神奈川	-11.4625
filter	-11.4626
An	-11.4626
▁laws	-11.4626
商品が	-11.4628
most	-11.4629
勿論	-11.4629
ストップ	-11.463
期間は	-11.463
▁variety	-11.463
WA	-11.463
pair	-11.4631
キリ	-11.4632
▁protein	-11.4632
元の	-11.4633
間違いなく	-11.4635
ソフトバンク	-11.4636
らせる	-11.4636
シフト	-11.4636
▁member	-11.4636
▁motor	-11.4637
▁orbit	-11.4637
起き	-11.4637
▁dark	-11.4639
残った	-11.4639
曲を	-11.4639
NT	-11.464
▁Practice	-11.4641
中継	-11.4642
分泌	-11.4645
定番	-11.4645
この時期	-11.4646
username	-11.4648
▁June	-11.4649
傘	-11.465
がちな	-11.4651
年間の	-11.4652
との出会い	-11.4654
確か	-11.4654
価格が	-11.4655
▁eat	-11.4655
▁無料	-11.4656
rap	-11.4657
▁distributed	-11.466
▁PC	-11.4661
west	-11.4661
必ずしも	-11.4662
れん	-11.4663
▁unknown	-11.4666
点が	-11.4666
cert	-11.4667
主要な	-11.4668
ご覧	-11.4669
▁やはり	-11.467
LD	-11.4671
の音楽	-11.4671
苦笑	-11.4672
やろう	-11.4672
水着	-11.4673
衛	-11.4674
aki	-11.4675
茨城県	-11.4675
Model	-11.4676
祖	-11.4676
韓国の	-11.4678
description	-11.4681
才能	-11.4682
▁coordinate	-11.4682
State	-11.4683
貞	-11.4685
じっくり	-11.4686
最中	-11.4687
▁shall	-11.4688
後も	-11.4688
さっき	-11.4689
汚染	-11.4691
の発生	-11.4691
いている	-11.4691
テレビ朝日	-11.4692
ーーー	-11.4693
帽子	-11.4693
父の	-11.4694
いえ	-11.4694
スタッフが	-11.4695
こない	-11.4696
Tensor	-11.4697
奇跡	-11.4697
▁physics	-11.4698
images	-11.4698
できている	-11.47
の道	-11.4701
稀	-11.4702
があったので	-11.4705
紗	-11.4707
腕時計	-11.4709
tt	-11.4709
player	-11.4709
わけですが	-11.4711
▁本日	-11.4712
してみると	-11.4712
作れる	-11.4713
マニア	-11.4713
▁slow	-11.4713
たて	-11.4713
クー	-11.4714
のイベント	-11.4716
GI	-11.4716
等について	-11.4717
などなど	-11.4717
▁differences	-11.4717
使われる	-11.4718
申告	-11.4718
▁symptoms	-11.4719
ones	-11.4719
選手が	-11.4721
顔の	-11.4721
ブー	-11.4724
ピーク	-11.4725
となっております	-11.4725
AF	-11.4726
power	-11.4727
どこまで	-11.4727
客室	-11.4728
unch	-11.4728
脱毛サロン	-11.473
財団	-11.473
喉	-11.473
▁south	-11.473
▁liquid	-11.473
昔は	-11.473
はいつ	-11.4733
■	-11.4734
いたが	-11.4734
克	-11.4735
顔が	-11.4735
▁	-11.4736
二つの	-11.4736
ことにしました	-11.4737
▁saw	-11.4737
すり	-11.4737
形の	-11.4739
してしまい	-11.474
Le	-11.4741
ナンバー	-11.4742
装着	-11.4743
中山	-11.4744
代表取締役	-11.4745
の部屋	-11.4745
同社	-11.4746
の整備	-11.4748
THE	-11.4748
冒険	-11.4749
offset	-11.4749
tz	-11.4749
怪	-11.475
落ちる	-11.475
書かれている	-11.475
売る	-11.4751
慣れ	-11.4751
bul	-11.4753
訴え	-11.4754
婚	-11.4754
しているため	-11.4755
するよう	-11.4758
▁deep	-11.4758
意見を	-11.4758
クリーニング	-11.4758
service	-11.476
職務	-11.4761
言われた	-11.4762
▁Function	-11.4763
組み立て	-11.4763
▁limited	-11.4763
He	-11.4764
移住	-11.4766
▁sorted	-11.4766
よろしく	-11.4767
期間中	-11.4767
洋服	-11.4769
愛情	-11.477
市役所	-11.477
下手	-11.4771
tur	-11.4771
存在する	-11.4772
方が良い	-11.4772
verse	-11.4772
本格	-11.4773
?"	-11.4775
かどうかは	-11.4776
おばさん	-11.4776
UT	-11.4776
ことになった	-11.4777
で一番	-11.4777
でお	-11.4778
した上で	-11.478
新築	-11.478
頭が	-11.4781
原稿	-11.4781
▁led	-11.4782
飲んだ	-11.4783
啓発	-11.4783
▁session	-11.4783
正社員	-11.4784
休業	-11.4784
もらいたい	-11.4787
目的で	-11.4787
ura	-11.4788
▁concepts	-11.4788
sym	-11.4788
個人的に	-11.4789
誇	-11.4789
ブログに	-11.479
前回の	-11.4791
添え	-11.4791
ディス	-11.4791
演じ	-11.4793
▁dictionary	-11.4795
本店	-11.4797
登り	-11.4798
田村	-11.4799
花火	-11.4799
▁そのため	-11.4801
西洋	-11.4802
美肌	-11.4802
ケル	-11.4803
回路	-11.4803
標	-11.4803
想	-11.4803
) 	-11.4804
ものとする	-11.4804
Apple	-11.4806
スカイ	-11.4808
これからの	-11.4808
っか	-11.4809
者数	-11.4809
セルフ	-11.481
濡れ	-11.481
アリス	-11.481
調節	-11.4811
▁genetic	-11.4812
反映	-11.4813
杏	-11.4814
▁depth	-11.4815
ION	-11.4815
留め	-11.4816
▁Like	-11.4816
全員が	-11.4817
かもしれませんね	-11.4818
インフルエンザ	-11.482
ジャズ	-11.482
ency	-11.482
身体の	-11.4821
率が	-11.4821
けい	-11.4821
最強	-11.4823
釣	-11.4824
周囲の	-11.4824
かも知れません	-11.4825
の名称	-11.4826
ムダ毛	-11.4827
していません	-11.483
Comp	-11.4831
手軽に	-11.4832
ANA	-11.4833
稼働	-11.4834
病院で	-11.4834
で行われた	-11.4835
随時	-11.4835
カナ	-11.4835
▁private	-11.4835
グループの	-11.4836
のところ	-11.4836
家を	-11.4836
あた	-11.4838
ROOT	-11.484
ned	-11.484
驚いた	-11.484
ばかりの	-11.484
作品の	-11.4841
にいた	-11.4841
factor	-11.4843
商店街	-11.4844
した結果	-11.4844
リュー	-11.4846
与えられた	-11.4847
クオリティ	-11.4847
外観	-11.4847
▁visual	-11.4848
▁Sign	-11.4848
活性化	-11.4848
▁lesson	-11.4851
▁今は	-11.4854
▁happen	-11.4854
▁Ni	-11.4855
京都府	-11.4855
残高	-11.4857
であることが	-11.4857
スー	-11.4858
単独	-11.4858
テクノロジー	-11.4859
Delta	-11.4861
Num	-11.4861
出勤	-11.4864
周りに	-11.4864
▁stage	-11.4865
の範囲	-11.4866
主題歌	-11.4866
なしで	-11.4867
ラック	-11.4869
▁Word	-11.487
thing	-11.487
ヒロ	-11.4871
に行ってきました	-11.4872
▁Du	-11.4872
に入れ	-11.4873
〔	-11.4876
column	-11.4876
ストレッチ	-11.4877
を楽しんで	-11.4878
ルス	-11.488
レンタ	-11.4882
JavaScript	-11.4882
▁電話	-11.4883
回る	-11.4883
ory	-11.4884
引っ	-11.4885
られません	-11.4888
▁communication	-11.4888
動機	-11.489
受注	-11.4891
細かく	-11.4891
▁engine	-11.4892
▁=>	-11.4892
高度	-11.4893
お楽しみ	-11.4893
▁improve	-11.4893
当サイト	-11.4893
刃	-11.4893
改修	-11.4893
私達	-11.4894
へ行く	-11.4894
大規模	-11.4894
oma	-11.4896
向こう	-11.4898
落ち着いた	-11.4898
▁え	-11.4899
競	-11.4899
とくに	-11.49
今のところ	-11.4901
ヨーグルト	-11.4905
▁August	-11.4906
トライ	-11.4907
~~~	-11.4907
▁Numbers	-11.4908
起こる	-11.4909
PP	-11.4909
教育委員会	-11.4909
やってきた	-11.4911
datetime	-11.4912
▁みなさん	-11.4912
気づき	-11.4913
ないよう	-11.4914
貿易	-11.4916
苦しい	-11.4916
オークション	-11.4917
▁ancient	-11.4918
tre	-11.4918
kan	-11.4918
を示した	-11.4919
▁mother	-11.4919
知り	-11.492
われる	-11.4921
強度	-11.4921
投資家	-11.4922
の香り	-11.4923
行ける	-11.4925
発足	-11.4925
の減少	-11.4925
覆	-11.4926
中古車	-11.4926
罰	-11.4927
▁divisors	-11.4928
att	-11.4928
保育士	-11.4929
jo	-11.493
ストラ	-11.4931
懐	-11.4933
シックス	-11.4933
NPO	-11.4934
手前	-11.4934
推定	-11.4936
併用	-11.4936
ておく	-11.4937
ネー	-11.4939
ごめんなさい	-11.4939
ことである	-11.494
に出る	-11.494
▁今年も	-11.494
zone	-11.4941
Spec	-11.4941
ソニー	-11.4943
アプリ版	-11.4943
▁最近は	-11.4943
倫理	-11.4944
かかり	-11.4946
az	-11.4946
rowspan	-11.4947
メガネ	-11.4948
▁映画	-11.4948
出典	-11.4949
場合もあります	-11.495
表示されています	-11.495
がかなり	-11.495
を多く	-11.4951
の戦い	-11.4951
規	-11.4952
……」	-11.4953
部分に	-11.4953
よくある	-11.4953
巨大	-11.4953
前年	-11.4954
みれば	-11.4954
およそ	-11.4958
▁leave	-11.4958
roll	-11.4959
を実施する	-11.4962
▁chapter	-11.4962
目は	-11.4962
▁sugar	-11.4962
▁Inter	-11.4964
▁関連記事	-11.4967
中国人	-11.4967
▁Sch	-11.4968
サイズの	-11.4969
グレ	-11.497
状態に	-11.497
関連する	-11.497
movie	-11.4974
▁スマホ	-11.4974
ビット	-11.4975
▁teacher	-11.4976
▁lib	-11.4977
仕事で	-11.4978
▁explore	-11.4979
自殺	-11.498
耕	-11.4981
▁poly	-11.4982
ガイ	-11.4982
ハッピー	-11.4983
だよね	-11.4983
▁protect	-11.4984
▁昭和	-11.4987
返品	-11.4988
お客様は	-11.4989
一見	-11.499
川の	-11.499
続けている	-11.4991
▁respectively	-11.4992
つつある	-11.4993
▁password	-11.4993
小野	-11.4993
玄	-11.4995
mile	-11.4995
▁rm	-11.4995
更	-11.4995
いかない	-11.4997
入った	-11.4997
出会える	-11.4997
付近	-11.4997
▁TV	-11.4997
ブログを	-11.4998
レベルの	-11.4999
ike	-11.4999
唯一	-11.5002
十二	-11.5004
site	-11.5005
ndarray	-11.5006
青春	-11.5007
▁goal	-11.501
大切	-11.5011
柔らかく	-11.5013
､	-11.5014
▁url	-11.5015
▁returned	-11.5016
▁vertex	-11.5016
冷たい	-11.5018
好みの	-11.5018
姿が	-11.5018
大根	-11.5019
大字	-11.5019
ボトル	-11.502
セント	-11.5021
izer	-11.5022
翌年	-11.5024
▁trees	-11.5024
短縮	-11.5025
学校で	-11.5025
混雑	-11.5025
password	-11.5025
ble	-11.5026
早期	-11.5029
▁View	-11.5029
講演会	-11.5029
があるから	-11.503
どちらか	-11.5031
▁particle	-11.5031
▁tr	-11.5032
ユニ	-11.5032
を飲む	-11.5035
トリートメント	-11.5035
you	-11.5036
SB	-11.5036
今や	-11.5037
instance	-11.5038
ではありますが	-11.5039
会員登録	-11.504
▁King	-11.504
ぴったり	-11.5042
に関連する	-11.5043
問い	-11.5044
ませんか	-11.5044
All	-11.5044
実務	-11.5045
DATA	-11.5047
▁Model	-11.5047
tract	-11.5047
コーン	-11.5048
sql	-11.5048
∞	-11.5048
並ぶ	-11.5049
▁master	-11.5049
モール	-11.5049
)/(	-11.505
条約	-11.5051
シリーズの	-11.5052
▁ホーム	-11.5053
▁·	-11.5054
$$.	-11.5054
分かり	-11.5055
場で	-11.5055
の長さ	-11.5056
▁During	-11.5056
をしたい	-11.5057
▁net	-11.5059
の一人	-11.506
指針	-11.5061
池袋	-11.5064
出来た	-11.5064
の詳細	-11.5065
見ると	-11.5066
建て	-11.5067
card	-11.5068
▁Year	-11.5068
▁spring	-11.5069
▁processes	-11.5071
argv	-11.5071
紫外線	-11.5071
ものではありません	-11.5071
water	-11.5074
依存	-11.5074
ウエスト	-11.5074
but	-11.5075
拒否	-11.5076
▁Over	-11.508
関係の	-11.508
泥	-11.5082
af	-11.5086
漁	-11.5086
||||	-11.5088
外科	-11.5088
▁April	-11.5089
居る	-11.509
ming	-11.509
▁operator	-11.509
身に	-11.5091
シング	-11.5091
▁▽	-11.5091
lex	-11.5092
▁無	-11.5092
だめ	-11.5093
ギー	-11.5093
を選んだ	-11.5093
尽く	-11.5093
Link	-11.5094
あたし	-11.5094
倶楽部	-11.5094
▁昨日は	-11.5095
leq	-11.5096
代謝	-11.5097
忘れて	-11.5097
▁users	-11.5098
とは違う	-11.5098
量の	-11.5098
フー	-11.5099
農地	-11.5099
お客様が	-11.51
時期に	-11.51
矯正	-11.51
ご購入	-11.5101
ローカル	-11.5102
復	-11.5102
）（	-11.5102
ナチュラル	-11.5105
▁followed	-11.5107
▁proper	-11.5108
上から	-11.5109
どこで	-11.5109
八幡	-11.5111
las	-11.5111
▁notes	-11.5112
▁commonly	-11.5112
▁Pe	-11.5112
対話	-11.5113
さに	-11.5114
▁European	-11.5114
掛	-11.5116
電話で	-11.5117
下着	-11.5117
情報提供	-11.5118
▁gave	-11.5119
データの	-11.5119
幹	-11.5121
があるため	-11.5123
▁その他の	-11.5123
認め	-11.5126
mal	-11.5126
license	-11.513
出てきた	-11.513
BB	-11.513
ほかの	-11.5131
gun	-11.5131
▁policy	-11.5131
径	-11.5133
Max	-11.5134
皇	-11.5135
なんとも	-11.5135
編み	-11.5137
ンの	-11.5138
岡田	-11.5139
デスク	-11.5139
session	-11.5141
の上で	-11.5141
ination	-11.5143
不能	-11.5145
高等	-11.5146
epsilon	-11.5147
難しく	-11.5147
ラフ	-11.5147
余り	-11.5147
年前の	-11.5147
Enter	-11.5148
ガラ	-11.5149
気に入って	-11.5149
厳しく	-11.5152
▁Common	-11.5154
▁lives	-11.5154
TER	-11.5154
わかり	-11.5156
▁collection	-11.5158
tw	-11.516
わかった	-11.5161
リカ	-11.5162
▁river	-11.5162
ages	-11.5163
新潟県	-11.5165
選手の	-11.5165
をかける	-11.5165
pin	-11.5165
笑顔で	-11.5167
▁views	-11.5167
▁logic	-11.5167
マイク	-11.517
▁Method	-11.517
炒め	-11.517
逃	-11.517
によるもの	-11.5171
ドイツの	-11.5172
女の	-11.5172
Jo	-11.5173
▁expressed	-11.5173
やめて	-11.5174
渋	-11.5175
▁parse	-11.5175
分間	-11.5175
国語	-11.5175
ところを	-11.5176
UV	-11.5176
inner	-11.5177
シアター	-11.5178
▁January	-11.5182
▁medical	-11.5183
ality	-11.5185
エビ	-11.5186
かは	-11.5187
▁pa	-11.5187
を掲載	-11.5187
等により	-11.5188
▁dimensions	-11.5188
")	-11.5189
という気持ち	-11.5189
ご参加	-11.5191
あや	-11.5191
くなって	-11.5192
コロ	-11.5193
飲み物	-11.5193
ガチ	-11.5193
上手	-11.5194
cache	-11.5197
の口コミ	-11.5198
託	-11.5198
レオ	-11.5198
やす	-11.5199
行使	-11.5199
゜	-11.52
円の	-11.52
sequence	-11.52
するのに	-11.5201
使われている	-11.5202
▁vertices	-11.5202
なりません	-11.5203
▁愛知県	-11.5204
垣	-11.5205
Ｇ	-11.5205
行列	-11.5206
^{\	-11.5207
策定	-11.5207
りして	-11.5208
を卒業	-11.5209
還元	-11.5209
栄養素	-11.521
mic	-11.521
責め	-11.5211
▁remains	-11.5211
君の	-11.5211
visible	-11.5212
娘の	-11.5212
フリ	-11.5212
額は	-11.5215
ランプ	-11.5215
ウッド	-11.5216
辻	-11.5217
さっそく	-11.5217
▁pretty	-11.5217
▁dist	-11.5218
App	-11.5218
書いてある	-11.5218
食べられる	-11.5219
▁Review	-11.5219
と判断	-11.5219
スケ	-11.5219
▁construct	-11.522
world	-11.522
青い	-11.5222
▁earlier	-11.5223
LS	-11.5224
那	-11.5227
ょ	-11.5227
タバコ	-11.5228
落ち着いて	-11.5229
哉	-11.5229
野村	-11.5229
の楽曲	-11.523
でしたね	-11.5232
をたくさん	-11.5233
socket	-11.5236
***	-11.5237
幸せな	-11.5237
過ぎた	-11.5237
りします	-11.5238
tags	-11.5238
ニット	-11.5239
▁Ab	-11.5239
をします	-11.5241
ワンピース	-11.5241
最適な	-11.5242
▁Indian	-11.5242
を伝える	-11.5243
のタイトル	-11.5243
売れ	-11.5245
▁というわけで	-11.5245
魅力的	-11.5246
IE	-11.5246
めた	-11.5248
っちゃう	-11.5248
エキス	-11.5249
部分の	-11.5251
▁Only	-11.5251
に合わせた	-11.5251
UL	-11.5252
旬	-11.5253
存	-11.5254
抜群	-11.5255
最適	-11.5256
溢れ	-11.5257
の知識	-11.5257
▁stored	-11.5258
GR	-11.5259
届出	-11.5262
▁hands	-11.5263
無料の	-11.5264
セー	-11.5266
関係ない	-11.5267
cle	-11.5269
付与	-11.5271
送って	-11.5273
RNA	-11.5273
の場所	-11.5274
プログラミング	-11.5276
▁Suppose	-11.5276
決めて	-11.5277
▁traditional	-11.5277
));	-11.5277
PER	-11.5277
some	-11.5278
!!!!	-11.5278
物が	-11.5278
そこには	-11.5278
コマンド	-11.5279
hin	-11.5279
発酵	-11.5281
メダル	-11.5281
インパクト	-11.5282
前作	-11.5282
▁conclusion	-11.5282
終わる	-11.5284
言われる	-11.5284
ライバル	-11.5286
dis	-11.5288
際の	-11.5289
に出場	-11.529
巨大な	-11.5291
▁twice	-11.5294
っていない	-11.5294
▁failed	-11.5294
▁cap	-11.5294
えん	-11.5294
英会話	-11.5295
さら	-11.5296
foo	-11.5298
ラッキー	-11.5298
してくれ	-11.5299
学生の	-11.5301
干し	-11.5303
)[	-11.5305
校長	-11.5305
たくて	-11.5306
のことです	-11.5308
使い勝手	-11.5308
同日	-11.5311
を活用した	-11.5311
並み	-11.5311
ダイヤモンド	-11.5311
大陸	-11.5312
▁var	-11.5312
チキン	-11.5313
投入	-11.5314
行動を	-11.5315
▁Excel	-11.5316
王座	-11.5317
逮捕	-11.5318
break	-11.5318
満足度	-11.5321
ベンチ	-11.5322
がち	-11.5322
琴	-11.5323
桂	-11.5323
加算	-11.5324
透明	-11.5324
適正	-11.5325
考えている	-11.5325
惑星	-11.5326
▁花	-11.5327
お店で	-11.5328
適応	-11.5329
隅	-11.533
▁reduced	-11.5334
▁attribute	-11.5334
だけを	-11.5335
tk	-11.5335
メタル	-11.5335
▁books	-11.5336
放射線	-11.5336
取った	-11.5337
▁exp	-11.5337
ado	-11.5338
▁wall	-11.5338
メイド	-11.534
切り替え	-11.534
合った	-11.5341
ディレクター	-11.5341
###############	-11.5341
どおり	-11.5342
に定める	-11.5342
TT	-11.5343
わかりやすく	-11.5344
生きている	-11.5344
ピザ	-11.5344
いな	-11.5344
▁shell	-11.5344
国会	-11.5346
央	-11.5348
▁アメリカ合衆国の	-11.5349
人もいます	-11.535
GW	-11.5351
重さ	-11.5351
品種	-11.5352
コンクリート	-11.5353
援	-11.5353
▁git	-11.5353
そこそこ	-11.5354
のみならず	-11.5354
んと	-11.5355
ini	-11.5356
▁毎日	-11.5357
▁TO	-11.5359
小規模	-11.536
幸福	-11.5361
キリスト教	-11.5361
GS	-11.5362
▁approximately	-11.5363
ーー	-11.5363
▁People	-11.5365
亡くなった	-11.5366
を変え	-11.5366
なければなりません	-11.5366
小屋	-11.5367
紅茶	-11.5368
ありますか	-11.5368
▁Thank	-11.5369
lig	-11.5371
吸い	-11.5371
▁{"	-11.5371
課金	-11.5372
は日本	-11.5376
サラリーマン	-11.5377
海外の	-11.5378
届	-11.5378
土日	-11.5379
乗って	-11.5379
遅い	-11.5379
ご家族	-11.5381
サイトに	-11.5382
危険な	-11.5382
▁generated	-11.5383
キャップ	-11.5383
方法が	-11.5384
ないため	-11.5386
期末	-11.5387
のデータ	-11.5388
の判断	-11.5389
ましたか	-11.5389
家電	-11.539
ってしまった	-11.539
lap	-11.539
!"	-11.5391
handler	-11.5391
があっても	-11.5392
派の	-11.5392
spect	-11.5395
岐阜県	-11.5395
duc	-11.5396
cept	-11.5396
貼り	-11.5396
LL	-11.5397
▁leading	-11.5397
積み	-11.5398
ノリ	-11.5398
▁男子	-11.5399
スコ	-11.5399
もう一つ	-11.54
▁measures	-11.54
▁soil	-11.5401
信仰	-11.5401
▁tangent	-11.5401
結果を	-11.5402
知人	-11.5402
橋本	-11.5403
なんですね	-11.5406
Number	-11.5406
▁Every	-11.5406
あさ	-11.5407
薬を	-11.5407
頭を	-11.5408
をすること	-11.5409
▁mis	-11.541
に入	-11.5411
魅力的な	-11.5412
公開された	-11.5412
寮	-11.5413
▁Greek	-11.5413
お申し込み	-11.5414
三菱	-11.5415
通販サイト	-11.5415
いじ	-11.5415
ei	-11.5417
▁highest	-11.5417
エレ	-11.5417
nom	-11.5417
▁dead	-11.5418
▁cluster	-11.5418
▁当社は	-11.5418
ches	-11.5418
遺跡	-11.5419
彼に	-11.5421
サンド	-11.5424
悟	-11.5424
者として	-11.5424
イライラ	-11.5425
重要です	-11.5425
乗り換え	-11.5425
Â	-11.5425
come	-11.5425
が発生する	-11.5425
筒	-11.5428
▁Help	-11.543
▁赤	-11.543
のよ	-11.543
ery	-11.5431
oh	-11.5432
のサイト	-11.5433
▁cover	-11.5433
▁magnetic	-11.5434
repo	-11.5435
▁Print	-11.5435
山崎	-11.5436
傾	-11.5436
テラス	-11.5436
ているので	-11.5436
は特に	-11.5439
大丈夫です	-11.5441
eck	-11.5442
(´	-11.5442
居酒屋	-11.5443
を変えて	-11.5444
▁himself	-11.5445
に影響	-11.5446
が決定	-11.5447
▁Air	-11.5447
を使っている	-11.5448
染め	-11.5448
警	-11.5449
考えられる	-11.5449
づらい	-11.5449
決断	-11.5449
もいる	-11.5451
gal	-11.5451
▁Black	-11.5453
嬢	-11.5454
お電話	-11.5455
ﾝ	-11.5455
鎌倉	-11.5456
▁letters	-11.5456
者を	-11.5457
れている	-11.5457
時も	-11.5458
録画	-11.5459
述	-11.5459
}}$$	-11.546
▁drawn	-11.546
コンサルタント	-11.5461
単価	-11.5461
懐かしい	-11.5461
絞り	-11.5462
ヘン	-11.5462
気持ちで	-11.5463
▁Her	-11.5464
序	-11.5466
カタログ	-11.5467
▁advantage	-11.5467
prime	-11.5468
に感謝	-11.5469
Line	-11.5469
カール	-11.547
ハーフ	-11.547
タカ	-11.5471
と同じように	-11.5473
そりゃ	-11.5473
に関する事項	-11.5476
limit	-11.5476
ことが多いです	-11.5478
あちこち	-11.5479
neighbor	-11.5479
学期	-11.548
を繰り返し	-11.548
三郎	-11.548
▁]]	-11.5482
ガールズ	-11.5482
果たして	-11.5483
他者	-11.5484
room	-11.5484
even	-11.5485
^\	-11.5486
語る	-11.5487
愛用	-11.5488
のだけど	-11.5489
▁feed	-11.549
されたもの	-11.549
▁Feb	-11.5491
災	-11.5491
完	-11.5492
exec	-11.5492
▁pop	-11.5499
放送された	-11.55
でもあります	-11.5501
'].	-11.5501
するだけで	-11.5502
▁errors	-11.5502
独特の	-11.5503
猫の	-11.5503
phrase	-11.5503
実際は	-11.5505
食事を	-11.5507
ような気がします	-11.5507
買収	-11.5509
▁doctor	-11.5509
キック	-11.551
▁会場	-11.5511
pro	-11.5512
と呼ぶ	-11.5512
受ける	-11.5513
理由として	-11.5514
同じように	-11.5515
が原因	-11.5515
▁pull	-11.5516
暖	-11.5516
聴いて	-11.5517
都内	-11.5518
の影響で	-11.5519
融合	-11.552
▁音楽	-11.5521
ポイントが	-11.5522
金の	-11.5522
反射	-11.5522
▁generation	-11.5522
ピア	-11.5523
精度	-11.5524
分ほど	-11.5524
付けて	-11.5526
が行われる	-11.5526
リボン	-11.5526
既存の	-11.5526
は別	-11.5527
いいです	-11.5527
失礼	-11.5528
ることができます	-11.5528
旅館	-11.5529
工房	-11.5529
▁どんな	-11.553
二次	-11.553
気になった	-11.553
匿名	-11.5531
性質	-11.5532
domain	-11.5533
双	-11.5533
▁obtained	-11.5533
variant	-11.5537
dest	-11.5537
がないので	-11.5538
des	-11.5539
hand	-11.554
弁当	-11.554
代表取締役社長	-11.554
ここの	-11.5541
かける	-11.5541
加えて	-11.5542
を支える	-11.5544
自体	-11.5544
本格的な	-11.5545
同様に	-11.5545
▁credit	-11.5546
性が	-11.5546
well	-11.5546
empty	-11.5547
東部	-11.5548
▁strength	-11.5548
色は	-11.5548
▁highly	-11.5549
腐	-11.555
SHI	-11.555
お送り	-11.5551
▁calculations	-11.5551
▁〔	-11.5552
自然な	-11.5554
に住む	-11.5555
飲食店	-11.5555
使えない	-11.5556
etic	-11.5557
為替	-11.5558
HS	-11.5559
ペーパー	-11.556
さき	-11.556
あくまでも	-11.5562
酸素	-11.5564
さて	-11.5565
アニメーション	-11.5566
▁particles	-11.5566
作品は	-11.5567
UC	-11.5567
に直接	-11.5567
誤解	-11.5568
ーク	-11.5568
▁identity	-11.5568
披露	-11.557
舐め	-11.557
の組み合わせ	-11.557
の指導	-11.557
ガンダム	-11.557
チラシ	-11.5571
通話	-11.5572
▁まとめ	-11.5573
博多	-11.5574
がないと	-11.5574
然と	-11.5575
extend	-11.5576
アカ	-11.5578
するなら	-11.5578
header	-11.558
ヴォ	-11.558
大阪市	-11.5582
度に	-11.5583
上り	-11.5584
刑	-11.5584
東洋	-11.5584
はよく	-11.5584
個々の	-11.5585
慎	-11.5585
▁season	-11.5586
くらいに	-11.5586
主役	-11.5587
数を	-11.5588
ではなくて	-11.5589
セリフ	-11.5589
利用者の	-11.5591
FL	-11.5592
ez	-11.5595
（*	-11.5595
チリ	-11.5595
パッ	-11.5595
eo	-11.5596
rf	-11.5596
matic	-11.5597
をしながら	-11.5597
柏	-11.5598
▁Aug	-11.5598
NET	-11.5599
大量の	-11.5599
其	-11.56
ジャニーズ	-11.5601
wiki	-11.5603
Load	-11.5604
研修会	-11.5604
に来る	-11.5604
いい感じ	-11.5605
cols	-11.5605
集め	-11.5606
クッキー	-11.5607
安全な	-11.5608
▁moves	-11.5609
を有し	-11.561
nic	-11.561
けた	-11.561
の息子	-11.5613
の技術	-11.5613
メールを	-11.5613
▁patients	-11.5613
▁geo	-11.5613
発明	-11.5614
ora	-11.5615
進み	-11.5615
calc	-11.5616
>>	-11.5616
▁expressions	-11.5616
時間で	-11.5616
分散	-11.5617
ヴェル	-11.5617
TIME	-11.5618
おりました	-11.5618
洲	-11.5618
PDF	-11.5618
ないのに	-11.5618
実質	-11.5618
▁industry	-11.5619
視覚	-11.5619
aff	-11.5619
味方	-11.5619
育て	-11.5621
ties	-11.5622
届いた	-11.5622
以降は	-11.5623
美白	-11.5624
芸人	-11.5625
村の	-11.5626
▁father	-11.5628
"),	-11.5628
bus	-11.5628
葬儀	-11.5628
継	-11.5628
FAX	-11.5629
アマゾン	-11.5631
催	-11.5635
▁Life	-11.5636
▁learned	-11.5639
原料	-11.5642
▁れ	-11.5642
の報告	-11.5643
聞こえ	-11.5644
地獄	-11.5644
きん	-11.5645
部下	-11.5645
市で	-11.5645
を作った	-11.5646
を踏まえ	-11.5648
頭の	-11.5649
閉鎖	-11.5649
梅雨	-11.565
▁exam	-11.565
RPG	-11.5651
会議室	-11.5654
考えると	-11.5654
プリン	-11.5654
屋の	-11.5655
▁fundamental	-11.5655
Matrix	-11.5655
quote	-11.5656
▁click	-11.5656
What	-11.5657
▁held	-11.5657
author	-11.5657
専門学校	-11.5658
寂しい	-11.5658
に入れる	-11.5658
Item	-11.5661
幸い	-11.5664
NP	-11.5664
used	-11.5664
になってしまいます	-11.5665
石油	-11.5665
だったのですが	-11.5666
に見	-11.5667
この記事	-11.5667
訪れた	-11.567
▁pen	-11.567
にとっても	-11.5671
直す	-11.5673
bel	-11.5673
権限	-11.5674
太田	-11.5674
free	-11.5675
▁stream	-11.5676
ulate	-11.5676
▁Facebook	-11.5677
コラーゲン	-11.5677
record	-11.5678
▁daily	-11.568
が多数	-11.5681
複合	-11.5682
lang	-11.5684
▁religious	-11.5686
出展	-11.5686
モル	-11.5687
▁leaves	-11.5688
行います	-11.5688
お伝え	-11.5689
くんの	-11.569
を設け	-11.569
容易に	-11.5691
注射	-11.5693
ハナ	-11.5693
ドメイン	-11.5694
▁鈴木	-11.5696
▁ob	-11.5697
告知	-11.5697
alt	-11.5698
わん	-11.5698
うーん	-11.5703
姿を	-11.5703
するためには	-11.5704
上部	-11.5704
月まで	-11.5704
暮らす	-11.5704
でしょうが	-11.5705
▁decision	-11.5706
耐	-11.5706
を描いた	-11.5707
んな	-11.5707
▁observed	-11.5709
大学大学院	-11.571
▁Examples	-11.571
が増えて	-11.5712
pkg	-11.5712
皮脂	-11.5713
schema	-11.5714
工作	-11.5714
ara	-11.5714
焦	-11.5715
late	-11.5716
坪	-11.5717
TB	-11.5717
▁wanted	-11.5717
貯金	-11.5718
▁coefficient	-11.5719
[]	-11.5719
の小	-11.5721
一般の	-11.5721
もって	-11.5721
崩れ	-11.5721
でいい	-11.5721
問題ない	-11.5721
兵庫県	-11.5721
将軍	-11.5721
されてる	-11.5721
play	-11.5722
が見える	-11.5723
解体	-11.5723
わけだ	-11.5723
Vis	-11.5724
▁party	-11.5724
点を	-11.5725
墓	-11.5726
親切	-11.5727
エリ	-11.5728
モテ	-11.5729
Exp	-11.573
購入する	-11.5731
▁door	-11.5731
▁income	-11.5732
エース	-11.5732
サイトを	-11.5733
∀	-11.5734
店頭	-11.574
カート	-11.5741
My	-11.5741
▁NO	-11.5741
}$.	-11.5742
視線	-11.5742
現在では	-11.5743
がんばって	-11.5744
はしない	-11.5744
に使う	-11.5744
▁billion	-11.5744
名古屋市	-11.5745
編集部	-11.5745
dia	-11.5746
▁discuss	-11.5748
液晶	-11.5748
Auto	-11.5748
▁あなたの	-11.575
▁alone	-11.575
クター	-11.575
▁yourself	-11.5753
西部	-11.5753
の距離	-11.5753
年生の	-11.5754
イキ	-11.5758
ラボ	-11.5759
tuple	-11.5762
という方	-11.5762
]+	-11.5762
▁media	-11.5762
がありますので	-11.5764
の条件	-11.5766
騒	-11.5767
nce	-11.5767
article	-11.5767
監査役	-11.5768
異性	-11.5768
▁comments	-11.5768
違法	-11.5768
▁Bi	-11.5769
が入っている	-11.5769
ump	-11.5769
演劇	-11.577
踏	-11.5771
に出て	-11.5772
分野検索	-11.5775
▁dimension	-11.5775
受診	-11.5776
直後	-11.5776
ばっかり	-11.5777
っていて	-11.5777
替	-11.5777
ドール	-11.5777
weights	-11.5777
shi	-11.5777
を作成し	-11.5778
知らなかった	-11.578
UR	-11.578
得た	-11.578
セレブ	-11.5782
返事	-11.5784
▁僕は	-11.5784
部に	-11.5784
前年度	-11.5785
distance	-11.5785
▁anyone	-11.5786
一週間	-11.5786
次々と	-11.5786
▁setting	-11.5788
▁eyes	-11.5789
果物	-11.5792
人でも	-11.5792
に注目	-11.5792
▁null	-11.5793
暖かい	-11.5793
reward	-11.5794
TION	-11.5795
alter	-11.5796
▁fat	-11.5796
当事者	-11.5797
燃	-11.5799
▁Mr	-11.58
センサー	-11.58
▁secret	-11.58
▁Search	-11.5803
ジェット	-11.5803
▁infinite	-11.5803
起業	-11.5804
▁韓国	-11.5804
のおかげで	-11.5808
死んで	-11.5809
聴き	-11.581
Int	-11.581
就労	-11.581
ることなく	-11.581
▁Project	-11.581
電圧	-11.5811
UI	-11.5812
ドクター	-11.5812
▁Am	-11.5814
BY	-11.5814
お散歩	-11.5816
OT	-11.5818
▁kids	-11.5819
xi	-11.5819
態	-11.582
のメリット	-11.5821
もうすぐ	-11.5822
ペル	-11.5822
英語の	-11.5822
一旦	-11.5823
▁Kudos	-11.5823
のではないかと	-11.5823
疑い	-11.5823
装飾	-11.5823
ave	-11.5823
▁refer	-11.5824
duration	-11.5826
▁IS	-11.5826
すと	-11.5829
ネック	-11.5831
感じが	-11.5831
会社は	-11.5832
Pre	-11.5833
▁Group	-11.5833
持参	-11.5834
▁pin	-11.5837
(^^;	-11.5838
専門の	-11.5839
男性は	-11.5839
▁wait	-11.5839
こんにちは	-11.584
当期	-11.584
の無い	-11.584
これ以上	-11.5842
去	-11.5846
監	-11.5847
▁arr	-11.5848
狩り	-11.5848
経済的	-11.5849
▁bus	-11.585
てくれます	-11.585
▁tools	-11.5851
exists	-11.5852
訪れる	-11.5852
Label	-11.5853
君は	-11.5857
になったり	-11.5857
▁prior	-11.5858
リピート	-11.5859
比べ	-11.5862
Multi	-11.5862
only	-11.5864
は少ない	-11.5864
▁faster	-11.5868
▁removed	-11.5869
▁Center	-11.5871
劣	-11.5871
発動	-11.5872
nifty	-11.5872
▁合	-11.5874
ダーク	-11.5875
zero	-11.5876
バナナ	-11.5877
たれ	-11.5878
國	-11.5878
藤原	-11.5879
Linux	-11.5879
が生じる	-11.5879
問題が	-11.5879
ドーム	-11.5881
認可	-11.5881
を食べて	-11.5884
ユース	-11.5885
▁佐藤	-11.5885
足が	-11.5886
aku	-11.5887
▁Students	-11.5887
▁triangles	-11.5888
▁インターネット	-11.589
ギャ	-11.5891
まっ	-11.5892
ワールドカップ	-11.5893
合流	-11.5893
ISBN	-11.5893
しているが	-11.5895
▁今年の	-11.5896
ゆえに	-11.5897
対抗	-11.5897
を続ける	-11.5898
▁tissue	-11.5898
merge	-11.5899
La	-11.5899
の人は	-11.5899
量を	-11.59
の際	-11.5901
ku	-11.5902
▁vol	-11.5902
neg	-11.5902
群馬県	-11.5902
人や	-11.5902
制服	-11.5903
思いました	-11.5904
どんなに	-11.5904
ā	-11.5904
ｽ	-11.5904
intercept	-11.5906
バックアップ	-11.5906
アメ	-11.5906
lb	-11.5908
同士	-11.5909
増減	-11.5909
通称	-11.5911
トランス	-11.5911
▁tried	-11.5912
下がり	-11.5912
伝え	-11.5914
開幕	-11.5915
履歴	-11.5916
殺害	-11.5916
that	-11.5916
address	-11.5917
既存	-11.5917
▁gr	-11.5917
▁Exception	-11.5918
使わない	-11.5919
折り	-11.592
の画像	-11.592
越し	-11.592
いつまでも	-11.5921
Ⅲ	-11.5923
てしまって	-11.5923
▁Functions	-11.5923
奪	-11.5925
振動	-11.5925
クエスト	-11.5927
full	-11.5928
塁	-11.5929
ないです	-11.5929
を置く	-11.593
^)/	-11.5931
個室	-11.5933
遣	-11.5934
火曜日	-11.5935
浴	-11.5935
会員登録はアプリ版から行う	-11.5936
unit	-11.5936
助言	-11.5936
みなさま	-11.5936
▁received	-11.5939
はいつも	-11.594
ストック	-11.5941
協働	-11.5942
欧米	-11.5942
寿命	-11.5944
▁pieces	-11.5945
してみて	-11.5947
澄	-11.5948
ミュージシャン	-11.5948
ですかね	-11.5949
ニュ	-11.5949
▁DE	-11.5949
両者	-11.595
歌い	-11.595
まわ	-11.5951
encies	-11.5952
▁カルティエ	-11.5952
物は	-11.5953
幾	-11.5953
を示し	-11.5956
ライダー	-11.5956
の方も	-11.5957
TYPE	-11.5957
cer	-11.5957
北京	-11.596
と呼ばれ	-11.5963
ハメ	-11.5966
しばしば	-11.5966
恩	-11.5966
虚	-11.5966
結成	-11.5967
▁Homework	-11.5967
valid	-11.5968
れます	-11.5969
ici	-11.5969
刊	-11.597
metadata	-11.5971
チェンジ	-11.5972
▁あとは	-11.5973
の街	-11.5974
ストレート	-11.5974
を手に	-11.5977
▁これまで	-11.5978
ago	-11.5978
の再	-11.5978
と言われている	-11.5978
著作	-11.5978
commit	-11.5981
見つけた	-11.5981
関与	-11.5982
js	-11.5983
▁他にも	-11.5983
操	-11.5983
high	-11.5984
珠	-11.5985
史上	-11.5985
シロ	-11.5985
が発生し	-11.5985
双方	-11.5986
光景	-11.5986
露出	-11.5986
each	-11.5988
免	-11.5989
現れ	-11.5992
そうに	-11.5992
修復	-11.5992
会った	-11.5992
ことが大切です	-11.5993
をどう	-11.5993
ISO	-11.5993
▁Start	-11.5994
問題を	-11.5994
発生する	-11.5994
その点	-11.5995
お手入れ	-11.5995
▁夏	-11.5997
上海	-11.5998
fr	-11.5998
フロア	-11.5998
▁comparison	-11.5999
▁それに	-11.5999
大豆	-11.5999
実施する	-11.5999
};	-11.6
Off	-11.6
の際は	-11.6
いけない	-11.6
始めました	-11.6002
が入る	-11.6002
生の	-11.6003
pon	-11.6003
▁午後	-11.6003
海老	-11.6005
スタジアム	-11.6005
entity	-11.6005
▁通販	-11.6005
▁Design	-11.6005
細菌	-11.6006
▁guide	-11.6006
お申込み	-11.6006
feature	-11.6006
を公開	-11.6008
ッカ	-11.6008
右側	-11.6008
年代の	-11.6009
▁-------	-11.601
損益	-11.6012
▁July	-11.6013
同盟	-11.6014
▁powerful	-11.6015
コウ	-11.6016
酷	-11.6017
仮に	-11.6017
▁giving	-11.6018
をより	-11.6018
▁ン	-11.6018
登場する	-11.6019
高田	-11.6019
▁del	-11.6019
いらない	-11.602
書房	-11.6021
ことにした	-11.6022
即日	-11.6023
ita	-11.6023
の拡大	-11.6024
▁extract	-11.6025
ケット	-11.6027
のなかで	-11.6027
▁Does	-11.6028
LC	-11.603
医者	-11.603
samples	-11.6032
横に	-11.6033
縮	-11.6034
人たちが	-11.6035
意思	-11.6035
達は	-11.604
▁essential	-11.604
ッコ	-11.6043
人生を	-11.6043
プロの	-11.6043
消滅	-11.6043
▁discovered	-11.6044
▁worth	-11.6044
ハラ	-11.6045
▁Point	-11.6047
たとき	-11.6048
々しい	-11.6048
くま	-11.6049
iOS	-11.6049
▁Up	-11.605
回答がもっと便利に	-11.605
▁こういう	-11.605
早朝	-11.6051
百合	-11.6054
なかったり	-11.6055
中国語	-11.6055
仏教	-11.6055
▁Main	-11.6055
デリヘル	-11.6055
小川	-11.6056
▁relatively	-11.6056
▁Art	-11.6056
ボーイ	-11.6057
を使ってみませんか	-11.6057
てきて	-11.6058
を設立	-11.606
生き方	-11.606
が起こる	-11.6062
シンガポール	-11.6062
▁connect	-11.6064
▁configuration	-11.6066
求	-11.6066
で最も	-11.6066
▁cold	-11.6067
テク	-11.6067
▁solar	-11.6068
▁投稿日	-11.6069
▁core	-11.6069
τ	-11.6069
ウェル	-11.6069
変わります	-11.607
logger	-11.6071
▁saying	-11.6072
tau	-11.6074
を購入しました	-11.6074
会社で	-11.6075
よろしくお願いいたします	-11.6075
充分	-11.6075
残業	-11.6076
全面	-11.6078
われた	-11.6079
という感じ	-11.6079
スーパーコピー	-11.608
固め	-11.6082
▁November	-11.6082
使えます	-11.6082
確かめ	-11.6082
"],	-11.6082
"$	-11.6083
▁sold	-11.6084
area	-11.6086
▁stick	-11.6086
系列	-11.6087
はなかなか	-11.6087
申し上げ	-11.6088
選んだ	-11.6088
こんなこと	-11.6089
が生じ	-11.6089
LP	-11.609
utf	-11.6092
発症	-11.6092
外側	-11.6095
▁gravity	-11.6095
が豊富	-11.6095
▁shapes	-11.6097
写真集	-11.6099
いいと思います	-11.61
外来	-11.61
の課題	-11.6101
ister	-11.6101
クラスの	-11.6101
ランニング	-11.6102
お出かけ	-11.6103
▁rates	-11.6103
消え	-11.6104
付き合って	-11.6104
知った	-11.6107
るのに	-11.6107
Str	-11.6107
BU	-11.6107
主任	-11.6108
ティア	-11.6108
就任	-11.6108
ご質問	-11.6108
]*	-11.6109
人生の	-11.611
動いて	-11.6112
▁kill	-11.6113
直線	-11.6113
怠	-11.6113
夜に	-11.6113
を導入	-11.6114
chunk	-11.6116
▁requests	-11.6117
言えない	-11.6118
勢力	-11.6118
の記録	-11.6119
頂いて	-11.612
函館	-11.612
▁perhaps	-11.612
結果として	-11.6122
大賞	-11.6122
暑さ	-11.6122
▁Section	-11.6123
▁everyone	-11.6123
INT	-11.6124
共和国	-11.6126
▁sufficient	-11.6126
▁News	-11.6127
監修	-11.6127
は同じ	-11.6127
独自	-11.6129
ある意味	-11.6129
犬の	-11.6129
順に	-11.6129
▁User	-11.613
ましたね	-11.613
API	-11.6131
のライブ	-11.6131
ワクチン	-11.6133
村上	-11.6134
効果を	-11.6134
,\	-11.6134
meta	-11.6135
ンス	-11.6137
桐	-11.6137
だらけ	-11.6138
欲しかった	-11.6139
会い	-11.6141
正確に	-11.6141
decode	-11.6142
fol	-11.6142
代目	-11.6144
いきましょう	-11.6144
のコメント	-11.6145
同様の	-11.6146
してしまいます	-11.6146
菅	-11.6149
おこ	-11.6149
作業を	-11.615
の時期	-11.615
はほぼ	-11.6151
機能が	-11.6152
メキシコ	-11.6152
▁changing	-11.6152
快適な	-11.6153
コンビ	-11.6154
▁カテゴリ	-11.6154
イヤー	-11.6155
send	-11.6155
▁Formula	-11.6155
飼育	-11.6156
ese	-11.6156
▁tail	-11.6157
社会の	-11.6158
ソーシャル	-11.6158
さっぱり	-11.6159
▁container	-11.616
利点	-11.616
cn	-11.6161
ベリー	-11.6162
どのくらい	-11.6162
more	-11.6163
仕事に	-11.6163
▁existing	-11.6163
Info	-11.6164
Content	-11.6164
Al	-11.6164
公務員	-11.6165
▁release	-11.6165
って言って	-11.6166
製造業	-11.6167
珍しく	-11.6168
▁Wi	-11.6169
▁上記	-11.617
patch	-11.6171
緒	-11.6171
警戒	-11.6171
を目指し	-11.6172
NN	-11.6172
▁Dan	-11.6173
はずだ	-11.6173
▁devices	-11.6173
yu	-11.6174
王子	-11.6175
▁Japanese	-11.6176
豪華	-11.6177
FI	-11.6178
auth	-11.6178
ウォーター	-11.6178
宣	-11.6181
sch	-11.6182
の重要性	-11.6183
スティック	-11.6184
▁sheet	-11.6184
▁Introduction	-11.6185
葬	-11.6186
天候	-11.6186
在住	-11.6186
抜	-11.6186
ati	-11.6186
肉体	-11.6187
これらは	-11.6188
っ子	-11.6189
▁claim	-11.619
▁mask	-11.6191
Tr	-11.6194
綱	-11.6196
の行動	-11.6197
違って	-11.6197
リサーチ	-11.6197
難易度	-11.6197
▁reflect	-11.6198
スマホで	-11.6198
▁ところが	-11.6198
セブン	-11.6198
▁mental	-11.6199
股	-11.62
を意味する	-11.6201
に至るまで	-11.6201
に参加する	-11.6201
かれる	-11.6201
まえ	-11.6203
喫煙	-11.6204
ボタンから検索して	-11.6204
アム	-11.6206
▁'__	-11.6206
▁statistics	-11.6207
なくなりました	-11.6208
紐	-11.621
的なもの	-11.6211
があったら	-11.6211
▁Value	-11.6212
する場合は	-11.6212
死に	-11.6212
font	-11.6215
クション	-11.6216
伊豆	-11.6218
▁harm	-11.6218
に沿って	-11.6218
▁ice	-11.6218
人々が	-11.6219
ele	-11.6219
▁Both	-11.6219
▁kernel	-11.6219
保全	-11.622
移植	-11.6221
robot	-11.6221
しますので	-11.6223
運営によって分野が削除される	-11.6224
を表示	-11.6226
いるのか	-11.6226
現れた	-11.6226
状の	-11.6228
▁custom	-11.6229
module	-11.6229
マジック	-11.623
nx	-11.6231
意志	-11.6232
ができて	-11.6232
山下	-11.6232
どころか	-11.6233
▁Basic	-11.6233
アカデミー	-11.6233
▁techniques	-11.6234
▁横浜	-11.6236
かって	-11.6236
下落	-11.6236
写真の	-11.6236
厚生労働省	-11.6236
石鹸	-11.6236
コンサルティング	-11.6236
▁おすすめの分野が見つかりません	-11.6237
を購入した	-11.6238
大人気	-11.6239
pc	-11.6241
我が家	-11.6241
がなければ	-11.6242
の支援	-11.6243
さらなる	-11.6244
他人の	-11.6246
LT	-11.6247
前田	-11.6248
溶け	-11.6248
に相談	-11.6248
これまでに	-11.6248
諸国	-11.6248
◇	-11.6249
繊維	-11.6249
を中心とした	-11.6249
質問募集内容	-11.625
▁portion	-11.625
▁profit	-11.625
迷い	-11.6251
流出	-11.6252
の反応	-11.6253
団地	-11.6253
瞳	-11.6256
隙間	-11.6256
▁⑥	-11.6256
取締役会	-11.6256
▁ということで	-11.6258
フジ	-11.626
配分	-11.626
ban	-11.6261
でしか	-11.6262
の調査	-11.6262
名誉	-11.6263
参加費	-11.6264
紹介した	-11.6265
カラダ	-11.6265
天才	-11.6265
gate	-11.6265
泣	-11.6266
経歴	-11.6267
zo	-11.6267
と比較して	-11.6267
▁capacity	-11.6267
おい	-11.6268
梱包	-11.6268
▁road	-11.6269
孔	-11.6269
Config	-11.6271
▁package	-11.6272
言わ	-11.6274
を上げ	-11.6274
をとって	-11.6274
square	-11.6275
シェル	-11.6275
▁San	-11.6275
▁Definition	-11.6275
──	-11.6275
▁conflict	-11.6276
mut	-11.6276
商標	-11.6276
trackback	-11.6276
の機会	-11.6276
はどこ	-11.6276
(※	-11.6277
ポイントを	-11.6277
▁quick	-11.6279
この日	-11.628
する人	-11.628
▁ideal	-11.6281
ld	-11.6281
fp	-11.6282
ためにも	-11.6282
スマ	-11.6282
▁oxygen	-11.6282
出来ません	-11.6283
悩んでいる	-11.6284
お問い合わせください	-11.6285
友達と	-11.6285
付いた	-11.6287
犯人	-11.6287
猿	-11.6289
コスプレ	-11.629
hon	-11.6291
戻り	-11.6292
▁raw	-11.6292
▁Text	-11.6292
に際して	-11.6292
を受けている	-11.6294
St	-11.6294
あんな	-11.6294
の価値	-11.6295
▁waste	-11.6296
ネーム	-11.6298
スペック	-11.6298
ンド	-11.6299
品川	-11.6299
カタ	-11.63
まと	-11.63
の価格	-11.6301
▁AC	-11.6301
司会	-11.6302
stat	-11.6302
査	-11.6303
英語で	-11.6308
に戻って	-11.6308
をご利用	-11.6309
フィギュア	-11.6309
どうなる	-11.631
かしら	-11.6311
を見つけて	-11.6311
prediction	-11.6312
を買った	-11.6312
カードを	-11.6313
window	-11.6313
｜	-11.6315
開拓	-11.6315
届け	-11.6316
を描く	-11.6316
スクリーン	-11.6317
▁finite	-11.6318
▁static	-11.6319
磯	-11.6321
キム	-11.6322
▁song	-11.6323
▁worked	-11.6324
▁pos	-11.6324
水曜日	-11.6324
lip	-11.6326
bc	-11.6326
SQL	-11.6327
▁transfer	-11.6327
やさしい	-11.6328
虐待	-11.6328
現代の	-11.6328
言葉で	-11.6328
になりますが	-11.6332
但し	-11.6332
を体験	-11.6333
研究開発	-11.6334
内容の	-11.6334
返還	-11.6334
かる	-11.6334
ウォー	-11.6334
▁brought	-11.6335
スピーカー	-11.6335
もたくさん	-11.6335
って言う	-11.6336
情熱	-11.6336
▁son	-11.6337
シマ	-11.6338
果て	-11.6338
▁centre	-11.6338
含	-11.6338
かけた	-11.6338
イト	-11.634
counts	-11.634
▁reasons	-11.634
〜」	-11.634
▁quadratic	-11.6341
もかなり	-11.6342
満載	-11.6343
お料理	-11.6344
Result	-11.6344
Ver	-11.6344
というより	-11.6348
を図り	-11.6348
耐え	-11.6348
お待ちしております	-11.6349
貼って	-11.635
JK	-11.6351
仰	-11.6351
この場合	-11.6351
んだな	-11.6351
しないで	-11.6351
under	-11.6352
ことについて	-11.6354
ネタバレ	-11.6355
食生活	-11.6355
▁confidence	-11.6356
童	-11.6356
創立	-11.6357
master	-11.6358
    	-11.6358
という人	-11.636
エージェント	-11.6361
付きの	-11.6362
ご連絡ください	-11.6363
▁Convert	-11.6363
shift	-11.6364
正義	-11.6364
▁race	-11.6365
ない限り	-11.6367
プロモーション	-11.6368
っぽ	-11.6372
ルト	-11.6372
を起こす	-11.6373
を減らす	-11.6374
キャン	-11.6376
ハッ	-11.6376
ミング	-11.6377
▁Chinese	-11.6377
話し合い	-11.6377
枕	-11.638
一面	-11.6382
立派な	-11.6385
に属する	-11.6387
料理を	-11.6387
休止	-11.6388
真ん中	-11.6389
▁des	-11.6389
gz	-11.6391
ウイ	-11.6391
fin	-11.6391
滋賀県	-11.6392
笹	-11.6394
寺院	-11.6395
vin	-11.6396
議案第	-11.6397
と違って	-11.6398
してみよう	-11.6398
が多いです	-11.64
▁September	-11.6401
▁font	-11.6402
お願いいたします	-11.6402
▁accept	-11.6402
を問わず	-11.6402
▁Try	-11.6403
DM	-11.6404
原理	-11.6404
inc	-11.6404
LU	-11.6405
と思える	-11.6405
を考えると	-11.6406
春日	-11.6406
次第に	-11.6406
隠れ	-11.6407
代理	-11.6407
eth	-11.6407
フェスティバル	-11.6407
残っている	-11.6407
drop	-11.6408
を決め	-11.6409
prev	-11.6409
体型	-11.6411
だったけど	-11.6411
強み	-11.6412
るよう	-11.6413
出口	-11.6413
近づいて	-11.6414
のテーマ	-11.6414
チュー	-11.6415
ものすごく	-11.6415
ral	-11.6417
後輩	-11.6417
述べた	-11.6417
▁services	-11.6419
ができた	-11.6419
！！	-11.6419
そうと	-11.642
its	-11.642
▁Jesus	-11.642
predict	-11.6423
▁Act	-11.6423
rat	-11.6424
もしも	-11.6427
探す	-11.6428
参戦	-11.6428
久々に	-11.6428
して欲しい	-11.6432
真似	-11.6432
で行う	-11.6433
ken	-11.6434
ッキー	-11.6435
故に	-11.6435
で開催された	-11.6436
っぱなし	-11.6436
というふうに	-11.6439
蘭	-11.6439
tensor	-11.644
東日本大震災	-11.644
美味しかった	-11.6441
暦	-11.6444
年末年始	-11.6447
だったから	-11.6448
らが	-11.6449
入金	-11.6449
強力な	-11.6449
フェン	-11.6449
屋外	-11.645
サイトです	-11.6451
次世代	-11.6455
姫路	-11.6455
中川	-11.6455
金銭	-11.6456
CB	-11.6457
manager	-11.6459
アップル	-11.646
▁October	-11.646
人間は	-11.6461
Input	-11.6462
テレクラ	-11.6462
]['	-11.6463
午前中	-11.6463
毎に	-11.6464
タイミングで	-11.6465
の取り組み	-11.6467
なのが	-11.6467
つらい	-11.6468
cu	-11.6469
tail	-11.647
と感じました	-11.6471
の予約	-11.6471
vel	-11.6472
今月	-11.6473
アドバイザー	-11.6473
教職員	-11.6474
context	-11.6474
▁API	-11.6476
process	-11.6476
の考え方	-11.6476
くれない	-11.6478
仕入れ	-11.6478
発表会	-11.6478
勘	-11.6479
されてしまう	-11.648
ッター	-11.648
▁ocean	-11.648
海洋	-11.6481
▁workers	-11.6482
行われている	-11.6482
▁weights	-11.6483
nb	-11.6483
全身脱毛	-11.6483
▁coding	-11.6483
アメリカン	-11.6484
水の	-11.6485
▁inputs	-11.6486
五十	-11.6486
私立	-11.6486
layers	-11.6487
僕も	-11.6487
旭	-11.6487
飲料	-11.6487
わたしの	-11.6489
を送る	-11.6489
を選び	-11.6489
んでしょうか	-11.6489
の下で	-11.649
san	-11.649
▁languages	-11.6491
冷や	-11.6492
｢	-11.6493
ラインナップ	-11.6493
▁質問募集内容に適した分野を選択	-11.6493
講談社	-11.6493
□	-11.6494
feat	-11.6494
イングランド	-11.6495
細い	-11.6495
流れる	-11.6496
core	-11.6496
いいか	-11.6498
殺し	-11.6499
一層	-11.65
▁Sha	-11.65
高原	-11.65
方や	-11.6501
classes	-11.6502
炭	-11.6503
cial	-11.6503
使いやすい	-11.6505
欲しく	-11.6506
摘	-11.6506
三浦	-11.6506
▁beyond	-11.6507
言葉に	-11.6508
lst	-11.6508
薬局	-11.6508
学級	-11.6508
BOX	-11.6509
▁dry	-11.6509
sync	-11.651
奥様	-11.6511
択されると	-11.6512
結果的に	-11.6512
さく	-11.6512
アニ	-11.6513
のホームページ	-11.6513
ミネラル	-11.6513
妙	-11.6514
wo	-11.6514
劇団	-11.6515
種目	-11.6516
▁stack	-11.6517
大学出身の人物	-11.6518
容易	-11.6518
にも関わらず	-11.652
取扱い	-11.652
クソ	-11.6521
▁supported	-11.6522
差額	-11.6522
産地	-11.6523
臣	-11.6524
dan	-11.6524
レディース	-11.6524
スプレー	-11.6526
お買い物	-11.6526
集まり	-11.6527
超え	-11.6531
新鮮	-11.6532
らしさ	-11.6532
▁Health	-11.6533
奴隷	-11.6533
技術者	-11.6534
と関連のない分野が選	-11.6534
やすさ	-11.6534
(^_^;)	-11.6534
pur	-11.6534
みず	-11.6535
換え	-11.6535
デジ	-11.6537
成田	-11.6538
弦	-11.654
CV	-11.6542
▁corner	-11.6543
スルー	-11.6545
bool	-11.6545
lum	-11.6545
を伝え	-11.655
，「	-11.655
proc	-11.6551
気配	-11.6552
かったです	-11.6552
なき	-11.6552
audio	-11.6552
▁construction	-11.6553
易	-11.6553
に登場する	-11.6554
')	-11.6554
が上がる	-11.6555
▁./	-11.6555
述べ	-11.6558
版の	-11.6559
分野で	-11.656
面白かった	-11.656
▁Determine	-11.6561
仕事は	-11.6561
dirname	-11.6563
めん	-11.6563
いくと	-11.6564
GET	-11.6564
IG	-11.6564
▁roll	-11.6565
に役立つ	-11.6565
いませんでした	-11.6565
殺人	-11.6566
ソル	-11.6566
osis	-11.6568
の症状	-11.6569
ude	-11.657
つけた	-11.6571
④	-11.6572
▁evaluate	-11.6573
トリー	-11.6573
▁toward	-11.6573
Blue	-11.6575
asset	-11.6575
備え	-11.6579
していましたが	-11.658
の全	-11.658
ならびに	-11.6582
▁progress	-11.6582
不具合	-11.6583
したいです	-11.6583
を使用し	-11.6583
▁tan	-11.6583
がわかる	-11.6583
権力	-11.6583
の多くは	-11.6585
どん	-11.6587
を超えた	-11.6587
兵衛	-11.6587
ハンドル	-11.6589
が流れ	-11.6591
適合	-11.6591
出せる	-11.6592
法的	-11.6592
▁Mor	-11.6593
lies	-11.6594
ご来店	-11.6594
aw	-11.6596
営業利益	-11.6597
ギア	-11.6597
が現れ	-11.6599
講習会	-11.6599
上手に	-11.6601
フェル	-11.6601
などから	-11.6601
zen	-11.6602
をとり	-11.6603
もったいない	-11.6604
監督の	-11.6604
▁clearly	-11.6604
bird	-11.6605
わかりやすい	-11.6606
配達	-11.6607
大いに	-11.6608
離れて	-11.6608
を設置	-11.661
配給	-11.661
だったのか	-11.6611
柴	-11.6612
void	-11.6613
Edit	-11.6613
▁West	-11.6613
な雰囲気	-11.6614
本学	-11.6614
することによって	-11.6615
クルマ	-11.6616
感じました	-11.6616
bound	-11.6617
おまけ	-11.6617
▁Output	-11.6619
スタンプ	-11.6619
owner	-11.662
▁nuclear	-11.6621
▁\)	-11.6621
Class	-11.6624
の歌	-11.6625
solve	-11.6626
ICE	-11.6627
▁来歴	-11.6628
てます	-11.6631
その場で	-11.6632
邸	-11.6633
▁implement	-11.6634
▁diagonal	-11.6634
中華	-11.6634
所有者	-11.6635
▁established	-11.6635
眠り	-11.6635
君が	-11.6638
▁ところで	-11.664
▁France	-11.664
iti	-11.6641
使っていた	-11.6641
の強い	-11.6642
の両方	-11.6642
の作り方	-11.6643
取り扱い	-11.6645
▁remain	-11.6646
デカ	-11.6646
を務め	-11.6646
渡し	-11.6647
花の	-11.6647
▁Col	-11.6648
スタンダード	-11.6648
台の	-11.6649
▁合計	-11.665
▁アイ	-11.6652
世の	-11.6652
▁出演	-11.6652
人員	-11.6654
めちゃくちゃ	-11.6655
ミュージカル	-11.6655
その中でも	-11.6656
それだけで	-11.6656
じん	-11.6656
世界観	-11.6657
ache	-11.6657
help	-11.6658
互	-11.6659
▁sec	-11.6659
ちょう	-11.666
対立	-11.666
を表す	-11.6662
menu	-11.6663
敗れ	-11.6663
それと	-11.6665
Of	-11.6666
まき	-11.6666
辞	-11.6666
と同じく	-11.6666
ement	-11.6666
下で	-11.6667
アクア	-11.6667
正月	-11.6667
unittest	-11.6668
キラキラ	-11.6668
朱	-11.6668
大野	-11.6671
答	-11.6672
の理由	-11.6672
nums	-11.6673
する必要	-11.6676
補給	-11.6676
のリスク	-11.6676
で見る	-11.6676
tical	-11.6677
にご	-11.6677
▁fine	-11.6678
▁tag	-11.6678
はじめに	-11.6681
▁Three	-11.6682
温かい	-11.6683
▁birth	-11.6685
我々は	-11.6687
高知	-11.6688
がこの	-11.6688
壮	-11.6688
何故か	-11.6689
再会	-11.6691
争	-11.6692
NEW	-11.6693
import	-11.6694
SET	-11.6697
models	-11.6698
note	-11.6699
uring	-11.6699
堅	-11.67
テイ	-11.67
あまりに	-11.6701
アッ	-11.6703
"))	-11.6703
幹部	-11.6704
▁agree	-11.6704
への対応	-11.6704
すればいい	-11.6704
▁Analysis	-11.6705
$$,	-11.6705
併せて	-11.6706
山梨県	-11.6706
レール	-11.6708
awa	-11.671
メガ	-11.671
詞	-11.6711
るから	-11.6712
▁stock	-11.6714
▁Space	-11.6715
してない	-11.6715
選べる	-11.6716
蒸し	-11.6717
〜。	-11.6719
津波	-11.672
桁	-11.6723
▁failure	-11.6723
then	-11.6724
浦和	-11.6724
スピ	-11.6724
ぶん	-11.6725
るのも	-11.6725
その分	-11.6725
うえで	-11.6726
に向け	-11.6726
グロ	-11.6727
▁これらの	-11.6727
Cell	-11.6728
作成した	-11.6728
昨年の	-11.6729
キリスト	-11.6729
者と	-11.673
lr	-11.673
▁practical	-11.673
を抑える	-11.6731
だか	-11.6731
と思うんです	-11.6732
ori	-11.6732
正面	-11.6732
のアルバム	-11.6732
FS	-11.6734
▁PR	-11.6735
お使い	-11.6736
スポンサー	-11.6736
近所	-11.6737
当社グループ	-11.6737
無償	-11.6737
common	-11.6738
そういうこと	-11.6738
だろうと	-11.6739
▁関西	-11.6739
チー	-11.674
メタ	-11.674
喧嘩	-11.6743
眼鏡	-11.6744
▁links	-11.6744
輔	-11.6744
"])	-11.6747
特急	-11.6748
物理	-11.6748
の御	-11.675
元年	-11.675
▁flag	-11.675
▁December	-11.675
▁Return	-11.6751
途	-11.6753
年次	-11.6754
現場で	-11.6755
始まり	-11.6756
拳	-11.6757
rule	-11.6757
▁located	-11.6758
があったり	-11.6758
東京の	-11.6759
▁keys	-11.6759
ark	-11.6759
歴代	-11.676
eep	-11.6762
原則として	-11.6763
▁interface	-11.6763
越え	-11.6763
▁'\	-11.6764
ˆ	-11.6764
放題	-11.6765
avi	-11.6765
▁Standard	-11.6765
TM	-11.6766
レンジ	-11.6767
tent	-11.6767
添	-11.6768
なってしまう	-11.6768
▁Source	-11.6769
▁starts	-11.6769
DP	-11.677
を維持	-11.6771
〇〇	-11.6771
リンパ	-11.6773
左側	-11.6774
▁mentioned	-11.6776
快適に	-11.6776
▁external	-11.6777
ウクライナ	-11.6777
▁threat	-11.6777
ハーブ	-11.6777
ｲ	-11.6778
カメ	-11.6778
おもしろい	-11.6779
fetch	-11.6779
半島	-11.678
信託	-11.6783
発注	-11.6784
逆転	-11.6784
に取り組む	-11.6784
▁annual	-11.6785
フェイス	-11.6787
二人で	-11.6787
AND	-11.6787
生じる	-11.6788
▁logger	-11.679
▁growing	-11.6791
▁depending	-11.6791
グラフィック	-11.6791
を増やす	-11.6791
у	-11.6792
と述べている	-11.6792
復旧	-11.6792
も良く	-11.6793
ものがある	-11.6793
もしっかり	-11.6794
公正	-11.6795
▁rep	-11.6795
戦う	-11.6796
予告	-11.6796
薬剤	-11.6797
安定した	-11.6798
覚醒	-11.6798
公民館	-11.6798
▁積み木	-11.6799
▁About	-11.6799
あぁ	-11.6799
あげて	-11.68
しね	-11.68
わる	-11.6801
化し	-11.6803
効果的	-11.6804
していたら	-11.6804
ッパー	-11.6804
待機	-11.6805
診	-11.6805
のみの	-11.6806
水素	-11.6807
▁BC	-11.6807
connect	-11.6807
のご案内	-11.6809
単純に	-11.6809
ですからね	-11.681
あう	-11.6811
▁Cha	-11.6812
シュート	-11.6812
取り組んで	-11.6812
場合でも	-11.6812
を呼び	-11.6813
衛星	-11.6813
dump	-11.6813
福井	-11.6814
▁measurements	-11.6814
あげた	-11.6815
▁teaching	-11.6815
通学	-11.6817
▁town	-11.6818
日数	-11.6818
産の	-11.6819
伝わる	-11.6819
近藤	-11.682
▁Grade	-11.682
ないのですが	-11.682
gs	-11.6821
mul	-11.6821
執	-11.6822
いただければ	-11.6822
額を	-11.6822
▁Key	-11.6822
house	-11.6823
しゅ	-11.6823
mv	-11.6824
▁security	-11.6825
PH	-11.6826
編入	-11.6826
身近な	-11.6826
残る	-11.6827
を獲得	-11.6827
エッチな	-11.683
凝	-11.6831
呉	-11.6833
キャベツ	-11.6833
▁perpendicular	-11.6833
▁couple	-11.6833
▁patient	-11.6834
icle	-11.6834
が可能な	-11.6834
坂本	-11.6835
の大きな	-11.6835
lands	-11.6836
下がって	-11.6836
補足	-11.6836
▁公式	-11.6837
まらない	-11.6838
コメ	-11.6838
Sub	-11.6838
ラグ	-11.6838
籠	-11.6839
マツ	-11.684
シャル	-11.6842
みや	-11.6842
”.	-11.6843
動向	-11.6843
マラ	-11.6844
erence	-11.6845
出願	-11.6845
▁strategy	-11.6846
出血	-11.6846
楽しめます	-11.6846
ーション	-11.6846
コリ	-11.6847
訂正	-11.6847
見かけ	-11.6849
気に入った	-11.6849
五輪	-11.6849
すみ	-11.6852
ありませんでした	-11.6853
死んだ	-11.6853
くらいで	-11.6853
▁fear	-11.6854
display	-11.6854
れません	-11.6855
実態	-11.6856
足元	-11.6856
ていますが	-11.6857
▁healthy	-11.6858
筆者	-11.6858
均	-11.6859
▁programs	-11.6859
▁Mean	-11.686
順番	-11.686
経って	-11.6861
謎の	-11.6862
インク	-11.6863
が入った	-11.6863
陸上	-11.6864
の痛み	-11.6864
お礼	-11.6865
律	-11.6865
つつも	-11.6866
▁オメガ	-11.6866
が付いて	-11.6867
折れ	-11.6867
課税	-11.6867
知恵	-11.6867
街道	-11.6869
劣化	-11.6869
と思うので	-11.687
▁David	-11.6871
してくれました	-11.6872
/${	-11.6873
▁foods	-11.6873
意外に	-11.6874
おきます	-11.6875
固有	-11.6875
ロイ	-11.6875
▁African	-11.6875
広がり	-11.6875
何だか	-11.6876
安心です	-11.6877
乙女	-11.6878
リフト	-11.688
の山	-11.6881
を出した	-11.6882
エール	-11.6883
soci	-11.6883
行かない	-11.6885
書面	-11.6886
出来て	-11.6886
住まい	-11.6889
置き換え	-11.6889
マックス	-11.6889
危険性	-11.689
▁Live	-11.6891
tes	-11.6891
ものなり	-11.6891
充実した	-11.6891
▁friends	-11.6892
zu	-11.6892
ペイ	-11.6894
コス	-11.6894
先で	-11.6894
の他	-11.6895
▁international	-11.6895
に期待	-11.6895
ブルク	-11.6897
締結	-11.6897
慢性	-11.6897
hang	-11.6899
`.	-11.6899
複	-11.6899
盛り上がり	-11.69
間隔	-11.6901
この文章	-11.6902
母の	-11.6903
美味	-11.6903
えます	-11.6903
瀬戸	-11.6903
良くない	-11.6904
おらず	-11.6905
タス	-11.6906
▁sequences	-11.6906
▁consists	-11.6907
沢山の	-11.6907
▁hash	-11.6908
quire	-11.691
が多いので	-11.6911
ラッシュ	-11.6911
▁thousand	-11.6911
▁female	-11.6911
しちゃう	-11.6911
多くの人が	-11.6912
т	-11.6914
兆	-11.6914
といえる	-11.6916
時間がかかる	-11.6916
私たちが	-11.6916
の先生	-11.6916
pool	-11.6921
ゆり	-11.6921
響き	-11.6922
face	-11.6922
oon	-11.6922
variable	-11.6922
前は	-11.6922
▁Related	-11.6923
低く	-11.6923
お肌	-11.6924
素直に	-11.6925
前で	-11.6928
を継続	-11.6928
どり	-11.6929
見ても	-11.6929
必見	-11.6932
を指す	-11.6932
リッチ	-11.6934
魔女	-11.6936
の物語	-11.6937
されていません	-11.6937
お話を	-11.6937
▁dt	-11.6938
その人	-11.6938
gy	-11.6938
金を	-11.6939
は必要	-11.6939
MM	-11.694
Var	-11.694
▁subset	-11.6941
販売店	-11.6941
はこれ	-11.6943
ギリギリ	-11.6944
あっさり	-11.6944
­	-11.6944
を強く	-11.6944
排水	-11.6944
Log	-11.6946
息子の	-11.6947
撮れ	-11.6947
Map	-11.6948
▁selection	-11.6949
インナー	-11.6949
・・。	-11.6953
mas	-11.6954
▁drawing	-11.6954
▁tensor	-11.6956
浸	-11.6956
の基準	-11.6956
乗車	-11.6957
▁rank	-11.6958
スロー	-11.6958
治験	-11.6958
特殊な	-11.6958
自治	-11.6958
四季	-11.6959
自然の	-11.6959
との事	-11.6959
と同様	-11.6959
        	-11.6959
宛	-11.696
ピース	-11.696
になってしまいました	-11.696
▁management	-11.696
ことになりました	-11.6961
フィット	-11.6962
少しだけ	-11.6962
沖縄県	-11.6963
している人	-11.6963
▁Maths	-11.6964
衝突	-11.6965
捉え	-11.6965
者たち	-11.6965
▁greatest	-11.6967
階級	-11.697
炉	-11.6972
あきらめ	-11.6972
に設置	-11.6973
症状が	-11.6974
地方の	-11.6975
蛇	-11.6976
▁Book	-11.6976
躍	-11.6977
RP	-11.6978
挙げ	-11.698
[...]
